/**
  ******************************************************************************
  * @file    network_data_params.c
  * @author  AST Embedded Analytics Research Platform
  * @date    2025-08-26T10:44:39+0900
  * @brief   AI Tool Automatic Code Generator for Embedded NN computing
  ******************************************************************************
  * Copyright (c) 2025 STMicroelectronics.
  * All rights reserved.
  *
  * This software is licensed under terms that can be found in the LICENSE file
  * in the root directory of this software component.
  * If no LICENSE file comes with this software, it is provided AS-IS.
  ******************************************************************************
  */

#include "network_data_params.h"


/**  Activations Section  ****************************************************/
ai_handle g_network_activations_table[1 + 2] = {
  AI_HANDLE_PTR(AI_MAGIC_MARKER),
  AI_HANDLE_PTR(NULL),
  AI_HANDLE_PTR(AI_MAGIC_MARKER),
};




/**  Weights Section  ********************************************************/
AI_ALIGNED(32)
const ai_u64 s_network_weights_array_u64[2978] = {
  0xfbfc1a9cb5123d5dU, 0xbd9b2a11838b489U, 0x4b1e42e32c0ef904U, 0x9bc34920fa092a1bU,
  0xc4c0cabdddba0ffaU, 0xe72128efd1c23144U, 0xec21f3a727ebbf34U, 0x35a80afef5c1f0e2U,
  0x9e0cf535dc0acb0dU, 0xe0a2552d43ef484bU, 0xb8b3b4c3c4391a1eU, 0x33a9033211b7f539U,
  0x2bf043b4a5e04a57U, 0xfc67ed0907397fe5U, 0xed19ee0c3c2f0049U, 0x9faa2017dcc1f8d9U,
  0x4ab2cff8ca0e03cdU, 0x1af2d2b63f152517U, 0xb5ac89c2ac07aea9U, 0x2f1a4b244f3fe425U,
  0xf3a43a2ace2a1a03U, 0xebfdcf18163013d2U, 0xc23fdecbe63924b8U, 0x28014aa0fee69ae5U,
  0x8f0d28ba11fcb2f9U, 0x59affffe1020e3a3U, 0xf407bb26511923c7U, 0x81dbfe4329f92647U,
  0x39132e6eca323c22U, 0xa9fa4e26c4a52f99U, 0xc7c3c68a543b27fdU, 0x3a2dab0013a7364fU,
  0xa6ebfe4b5a061530U, 0x27280f76bbb235ffU, 0xccb442ebeea8144aU, 0xc114ee48fef5214aU,
  0x49ee191d11d41959U, 0x239c1f7faf0a080aU, 0xaf155e314839dca0U, 0x5fd47a35e07a71cU,
  0xd230ebe5c7442ad7U, 0x4f4f3937eace3042U, 0xbd0203face1a16d6U, 0xdf4b43ed09e74df1U,
  0xd2211716d536e2f9U, 0xbdf91fd8bfe7b6d5U, 0xe40fb9be2d2ba1deU, 0x6dc0e5a11eb2730U,
  0x301c3566f41a3921U, 0xfec353b35f1e8f9U, 0xc2e8edebaa9abbd2U, 0x2fc20004214a8d8U,
  0xde0e2b39b9a5fd23U, 0x6edf01f6e01d2d9U, 0x12cf24ca3fd9c5ccU, 0x1c36150c1f0a3c4fU,
  0xeb1cf37f10dfe4daU, 0xe0cc3d2bc714d043U, 0xf3c5c4c5ede5e212U, 0xc25190efa34e6ecU,
  0x9ae24abff8ee6e59U, 0xd329c725fcca0f36U, 0xef1b32f3322a1be7U, 0xbc27d8e14f03e1b8U,
  0xfcf2c27fe7d137caU, 0xad0313d11922edd4U, 0xec30d74f2ffac9d9U, 0x2cadd7f7c6f038e5U,
  0xe622d91004e92fcfU, 0x3a3c023dac3cf21bU, 0x16a000e2dc252ff7U, 0x4a390ee0cabcf023U,
  0xe80107e7a8f57fd4U, 0x191a243831cb40ddU, 0xc3f8186900df3a4cU, 0xe1f1110c25f3f893U,
  0x652d50de10b42750U, 0xc6a2bbf5eac8b70fU, 0x42d9353ff6d5b63dU, 0xfb3ae13df454316U,
  0x2aedc7e9c1812a11U, 0xf2201d16f8cfdbc7U, 0xc6040328b2c10ff0U, 0x4d22a0c806392ed0U,
  0x6c0c46b4b2c88845U, 0x1adcb31fcc1240e1U, 0xe1dd41fa2fe5bd20U, 0xdb08e11e3a3f0cb3U,
  0xc61bea02e0ef0963U, 0x4710413b7f4e9d2aU, 0xf9430ada9f244ccbU, 0xed0dd5b9b4c724b7U,
  0xd7f21df94620c711U, 0xc32b110ef32eede1U, 0xbafdccdaad3db605U, 0x9eef440e4f240431U,
  0xabdab1e6b737e3c6U, 0x56dde4f6f171fd4dU, 0xb31301d6e798cf1dU, 0x42ba40ee9145732U,
  0xc02250df22bcc8f1U, 0xb7335423190eb10bU, 0xef3b0f4f0054a27U, 0xc2f0e6a924c27d04U,
  0xd65a364ff6e2abd6U, 0xfc2b153cebdd04bfU, 0xd7a62f54566a2d48U, 0x2b5bb0abdd7fefceU,
  0x1e4824c2ffcf3126U, 0x61ae48a8300050baU, 0xf6ac47367654fe18U, 0x9f4642fcf03971dcU,
  0x18b0c02829edf7d2U, 0xd9ebad48381811cdU, 0x6c39d844393016ffU, 0xc7fe4f082f24d846U,
  0xabbf26060fe6c36aU, 0x526ffeefb0fef6a2U, 0xdff92aafd4d22ec8U, 0xbbe9c92bbdd3202eU,
  0xa8dedc07014c311eU, 0xb6c51a025c574553U, 0xd6f5b0dfc2000b11U, 0x7f4dbf31cd0ff08fU,
  0x49fc323dc2e62816U, 0xce1b36401ee7bcc5U, 0x23ea05d273d52f20U, 0x2fcf0746b312ffd8U,
  0xb43ab5fd04c024a6U, 0x43ff3be413e5002bU, 0x32e7d1b5ddec28e3U, 0x180a1e09646b1cd7U,
  0xb79c0adee7351c45U, 0xdfd729100e43e7abU, 0x1347d9b304fef509U, 0x1f7ff10853b817e2U,
  0xfa2ccd1db0343532U, 0x44d6fa2e023dbbfbU, 0x16f9dedfee3138d9U, 0x1283520c06ffe9a3U,
  0xf32ec91bad55a62cU, 0xdc1726acf1f8bee7U, 0xd5d328b96b10dfd7U, 0xe4a70b0e894e0609U,
  0x2bd004e9c500f9e1U, 0x8dd2a4702117f0fU, 0xd2eb070d21562736U, 0x2240a64825ad16f6U,
  0x23ef05da0acb0de5U, 0x33aec5b61045f534U, 0x2ae5da032042e71bU, 0xaaa23a31e8e527b6U,
  0xed0bd3a75de2d1feU, 0x5c11f0fcccded6d5U, 0x18e42b18c2f927ebU, 0x38d8e6e600e444f9U,
  0x3cf0d9d1fad3f50bU, 0x1b4b22e3c920cb4bU, 0xfde354ee354e1343U, 0xfbc4e51cf202fe37U,
  0x473cd3b3ef19d1e0U, 0x16b4e53c1e56106eU, 0xff4ad2e21917d2c6U, 0x19c041b6c4052d44U,
  0x26360e0ffae3e9f6U, 0x3c9dfb1c25ca0fd6U, 0xced429241516c705U, 0xe2c4417f00baf4b4U,
  0xf7e92be7c4aec72cU, 0x2ff2dbf6145826efU, 0x19d614def626d52fU, 0xa71cdaddcf656827U,
  0xe7e6626bc42c26c4U, 0xefcad21aa6383befU, 0x2fd603f51bd3e993U, 0xbcff0bf9e230c9b1U,
  0x110a921940cd405eU, 0xcc10c7544f02f4f0U, 0xadb1e1dc49b197fU, 0x9d614aee40019d2fU,
  0xccfec50eac1a022aU, 0x5e12420beae5b1bcU, 0x782b752ec1d201f3U, 0x3c18d9db3d34f046U,
  0x17e59d10fce96b35U, 0x32eb22dd24cda1caU, 0xdf3603cfec147f15U, 0x231ab4f012ec04f2U,
  0xe52edfde5f2effaU, 0x27f11241e341e8d8U, 0xfd1ee715ece9d933U, 0x36202ef641081126U,
  0xe3e5dfe3e0fa210aU, 0xeb2210e3130e15e9U, 0x1c06370d09afec0bU, 0x61ff2625ebf8e74bU,
  0x27cdf71df3272069U, 0xeceff215ddb92208U, 0x3529ddd7d810bb09U, 0x2e35d118e82ae722U,
  0xcde6b4c909d90aedU, 0xe6f429f80733d3e3U, 0xfd0e521c21195da4U, 0xc71c32dc20be35fbU,
  0x233d0c08152d170aU, 0xdc0233cbdacc7f2fU, 0x2405dfbfdd082ce4U, 0xd6f2ddeb0915db2fU,
  0xe41ec82effebd91aU, 0xfd2cd7080749ec33U, 0x33162be1e108e026U, 0xbaf0cc36b93bebe0U,
  0xe402c5dabbe5faf6U, 0xe000fe13e4d9cf19U, 0x445a18ce284bdd16U, 0x5725f115100dc0U,
  0xe2d7c8bb06272aa9U, 0xcfefec9e61cf67fU, 0xaf4d7f50e2d21bfU, 0x2c3ceadc1243e2dbU,
  0x7e51db92ef9dd46U, 0x118c8cff4e63450U, 0x33d926d4dbf3e71aU, 0x1fcb24fddd2e2521U,
  0x6de7ecf42d381e15U, 0xcadee6d00e2045f2U, 0x9febd6b4f20b1d28U, 0xfb0ed5eb725bccc8U,
  0xd1c2c39d9ecc80bU, 0xe726f51e35c810e9U, 0xe44551ea072515c0U, 0x14fee04749e60c7fU,
  0xe9ef30fdb82a1c35U, 0xd7cc46c4340e1ec3U, 0xf7f101fee44fdee0U, 0xf90a3b71f71a1fcfU,
  0x1b0bf6b8c7fe0630U, 0xea47081f30e923fdU, 0xf31fd42c3e0f31d0U, 0xdbf225b4c8f93cddU,
  0xdc4bdc38d2f5d705U, 0xe0a7e604d346ce03U, 0x34eae8335ab801d6U, 0xbc0f26470ef13c2eU,
  0xc9ce0d44dd46ff9U, 0xf1a54aaee999f327U, 0xa33ffc5fb317515U, 0x81f9f1b1c034ee05U,
  0xf5d4e8da91f4dce3U, 0x1a1bcbebe0182f5bU, 0x3c3315d80a03d0f2U, 0xe25511c3ac4b8fd8U,
  0xbfcf64b0f46f073dU, 0xd7f747f42aedd793U, 0x1c2a17d30be92d19U, 0x221f673b025cc9edU,
  0xb924dcf9cf274c1bU, 0xdc161afca759db4aU, 0x47b33bbaacc0c31eU, 0x1bed553fc61e4e09U,
  0x429cbed5090c0ad3U, 0x29fc1abbd1c60eabU, 0x2ee7efadd10f44ffU, 0x53dc31bed43d24cbU,
  0x243ccc1dcb34fe1eU, 0xfde02d4de34c00bU, 0x3636f4e7e7d62426U, 0x3b0220d22ca8d612U,
  0x6627e734c32b0bc7U, 0x232df9e317ce7f1aU, 0xd225f1d208ead9a4U, 0xf740ce3e5005c02bU,
  0xd8e2dee10a32d818U, 0x6645612604f0d086U, 0xeeb1cdc859041fe5U, 0x394adc9fb4a8be00U,
  0x3baf37ba71474220U, 0x621b3c3e340677ffU, 0xbf3ae5afdb52badbU, 0x37fb41dc308f306U,
  0x344e37accc5cc901U, 0x29dcfa053ef448d8U, 0xbb6d505644d5ebfcU, 0xc71d4bc3de34b1adU,
  0x16c2fdf9f3b5202aU, 0x25eac84f025ddc21U, 0xdac7d531e25bf716U, 0xdcb9c3c8bdbdcd48U,
  0xe52afd3a0247ace1U, 0x3c1d142827e3e845U, 0xdda3a1000ec0226U, 0xbedae0de0e7fe3ffU,
  0x35f1c3eaff25ee29U, 0x2e3f39060d0642bbU, 0xb364b9bbb93ffcaaU, 0x210a1d0dd601c030U,
  0xd6aa3429a6e909eeU, 0xcf08f84b1007d1daU, 0x2203444628dd2bbeU, 0xf1f643e65442da00U,
  0xc1e79e1dd703e51fU, 0x7a08c6a84615bbc2U, 0xc8a03ff3d93ef6e9U, 0xecb304dcc0244bc6U,
  0x1d533710b5dacf10U, 0xc7de3ab6d9382f34U, 0x811fcdd593dffd0U, 0xe0d7deddc4fcdc59U,
  0x361b20ff2afdcad8U, 0xb0ec2a692b133328U, 0x47304c05fe0301caU, 0x7fd8d1174626f007U,
  0xf3c736ccdeeaed43U, 0xb9de57ec343aebceU, 0xe43ad23f15202414U, 0xaf053ad3024006e4U,
  0xe51ce5be08240ccbU, 0xebfbc703219ce01bU, 0xeae55a16e64ecb07U, 0x5b0030d1cdf2162bU,
  0x332f3b3ebadc3e0aU, 0xf3b118e1d531d7faU, 0xba550edbf41b1328U, 0xefbcb0b4ff2bccfeU,
  0xb6a7e8fce3d87f30U, 0xb82f13d7fa070207U, 0x50e33356e2b72022U, 0x5901545fa1bdb2aU,
  0x1efec4cc5f50feeaU, 0x3d7fc92cd0cce3d9U, 0xbbbbdaa552d900b4U, 0xd71860c12ed75c6cU,
  0xeed62297344404edU, 0xcba8d6fef8d8ab3aU, 0x259bf70de20bd7a0U, 0xb0ee037151d66047U,
  0x362d19e1f5bdb62cU, 0x413d4b9fae90fd0U, 0x21bec8d96f1cbdf8U, 0xc62edd3ca1df4ddcU,
  0x8e44c5b2f6eafa25U, 0x48e69adac7393ef2U, 0xf235ae93b5fa1d04U, 0x16fecdd2dccae38fU,
  0xcfe9fe05edf63d14U, 0x469941df07cde9c7U, 0xf03dbfc1071ec8c3U, 0xee0a8129e3ed1011U,
  0x314233d0f7f5c744U, 0x2e0de8b0029fd050U, 0x2eb432fff90afccaU, 0xbfb81eb958f51cd9U,
  0x1eadb79ee8d3165bU, 0x8193b4cc5b88419U, 0x5045f80db542f1e4U, 0xc2efd05bc096324U,
  0xf8f5ddd93140f320U, 0x339d7e3d8d8eb01U, 0xc9d2f2fb12fafe2dU, 0xfaf906f905e1f304U,
  0x2dcfbbd5e3d522e6U, 0x9e08d7233c3748e4U, 0xeffad1e0dee3e625U, 0xd8f0cbfe48e226e5U,
  0xed3adce4d410e8e6U, 0x1ad8302c35d5eee9U, 0xefd8010af504c6fdU, 0x1f13d80be60104e2U,
  0xaf2eb333fea4deaU, 0xdbf5d315110e14fdU, 0x20051e092245ee7fU, 0x2a3c071cabe51ad0U,
  0x54f916273de2eec2U, 0x1600e31e27d0e426U, 0x59020409107f2730U, 0x2ad8244ef505d83dU,
  0xc2c0b7f71ab6d744U, 0x2deecef80ece0df6U, 0xe922131811e3e8e3U, 0x3bcadbeaddf056c2U,
  0xfde8dc081501d61dU, 0xc2f342ffdccb17fdU, 0x70fe18b6e1103631U, 0x37d4afd44bf6ca12U,
  0xd8fc2ad003eeddd6U, 0x31cf853624cb05cdU, 0x35d2bbdd16a73af4U, 0x632bf3203ac0180fU,
  0xd9ecfbdb284e4cd3U, 0xf709fcc5b7afe5c2U, 0x43f7481249d1de42U, 0xf02a04fc500b34dbU,
  0xc5fdcf533c593515U, 0x2a4717b8c121171eU, 0xebd1bfbceff02b9eU, 0xccd328d8ebf1b723U,
  0x2306126b03efe9e6U, 0xc1bbcc3e05b81e21U, 0x6d50a81a2f7c8ffU, 0x7fff1fc8acc22cfdU,
  0x3ac21519db112d37U, 0x2600d4334116c426U, 0x9ce5e9e1c11fc00cU, 0xf1eff6ed164fb7efU,
  0xf656f4e643da431dU, 0x4121fb3a35e0ebaU, 0xcec20709b52ef9f8U, 0x20f00036b3f4f644U,
  0xb6ef213bc20746caU, 0x2062e133a83da2e1U, 0x34ba05c1babb36e4U, 0x22dfc708cecd3de2U,
  0x33f6f846e0af35a5U, 0x47bbf215a3e5ec1bU, 0xb5e7981501fae409U, 0x810542cf8cc3ed6U,
  0xedf42b231f2d65eaU, 0xc705e6f1b6403fe6U, 0xed323c3fc53be41fU, 0x4922d4d42345ff06U,
  0x1e4ffaedea4db118U, 0xb3aa16bac4ec1636U, 0xcf08030c3e10e02cU, 0xbfc82943de1f42f4U,
  0x3f30f3db28b0b4f8U, 0x7fdee9f2fcd805cbU, 0xf90dcac33946fbbcU, 0xd2e856b5581048e1U,
  0xb0eb65470d342ad0U, 0x4835c91613f7125eU, 0xaaddc804bd1be4c2U, 0x28f5abebf4f7a64eU,
  0xd9acc4dc3639e5f5U, 0x3388e819b8c1e758U, 0x7f3adc0b1e0b0325U, 0x4e5066c5290236ddU,
  0x2517e0543d12dc15U, 0xd2b26c3b556e9301U, 0x3f4602c3569f77b6U, 0x62fe432faed2352U,
  0x60ff8298f55a1315U, 0xd72e50fd5a13d6cfU, 0x4e6504d11662564dU, 0x35c1e147f7547607U,
  0x73290fcd4fcd83fU, 0x27c1ec0d78d7e40fU, 0xbb8bc0542e397b15U, 0xfee90b1fd9ad651fU,
  0xc11ba22c03141132U, 0xbe1df3a53f816925U, 0x3fd7ce0bb2ca393dU, 0xf7d567dbfaa9f557U,
  0xfbd1602eea562952U, 0x56b13c135cfc2136U, 0x411521e2342b3fc0U, 0xcf5fadd34c64ed7U,
  0x3451c443454942deU, 0xd7d13453b000ce6cU, 0xc61be5d045b81363U, 0xc721d842a102c9c6U,
  0x76be7440c062ebeU, 0x52e458bf25ffbfdcU, 0x150f4e5ee90a5edfU, 0x9463ca812a08e93bU,
  0x65111e0a1b0c72c0U, 0x6d023d0729fb28c8U, 0xd17d0df02d14e328U, 0xa3a5c410d45209c4U,
  0x1627235f78f5b215U, 0x13a42a210b3c20eU, 0x1905e9e1481b37b3U, 0x2b1efed6e8c9ac05U,
  0xda10280c110317d4U, 0x3df1050fe720de07U, 0x9f226f500e73c26U, 0xa5c4d5dbeefef6d9U,
  0x4f027f3df041ac2U, 0xeefff7b93616e109U, 0x1b2d00e5f520f812U, 0xf3e021d64107e6eaU,
  0xd30615c6e4f22bc9U, 0xc912dd24c0e9080fU, 0x9f92cc9140e3036U, 0xfcfffffc3113efc1U,
  0x2f31ebbecd19437fU, 0x3f523d0e29bc3dd5U, 0x54d11c9e4cb3e1cdU, 0x6c37d0afba68599eU,
  0xd128a67bb6116c18U, 0x484626321abb5944U, 0x65350527393c7c2fU, 0xacb43b2737b6430bU,
  0xefd9da3ff5e4310bU, 0xce15d1273f50d149U, 0xe9db2fd9901e2100U, 0xd80bc2f1eaf47f3aU,
  0x871e45eff49a08abU, 0x115bd597efebd854U, 0xa6401337059bd97aU, 0x1f35c7be29b72cd0U,
  0xb504e916130afe33U, 0x4a4e4a681acc2af8U, 0xaccbeb0430c548f8U, 0x5f0514fc47f0bcb9U,
  0x492f0a0627d34a1aU, 0x201ccc47e3344326U, 0xddc3233a0d7fb5fdU, 0xd71ba4cd8a2c340fU,
  0x1dc702283b2ace99U, 0xf53935eba0053936U, 0xba38d35a0c8e0e20U, 0xea32dbf753d0dee9U,
  0x38cac4c50a983c3cU, 0xba1ae02a383e2c1dU, 0x4feffdfd9eb1553U, 0xe00bec0f50fecfe2U,
  0x6c3de60e24242d0dU, 0x22f50f14342bfc32U, 0x1c38a407cb2e1bf0U, 0x5dd2845d0b3e126U,
  0x2112cbc021c414cfU, 0xdd242ff013ee1bd7U, 0xe9d023f600b601e4U, 0x27fa29fdd2401336U,
  0xb1e4193ceff44a16U, 0xdc2b4267feec0feU, 0xd2e94443f7dcdd01U, 0xd203d8d9320bd808U,
  0x91f18ebd94a7fdcU, 0xe8f2c2bcae16d5b0U, 0xd533ebe50b3b04feU, 0xe95126d5e3c3dcd1U,
  0xa55af64e02bec34U, 0xacecf6d82f2e1fc0U, 0xe7331cdb1cc6c4b8U, 0xd3fd3c21e2c133c2U,
  0x382b2b4eaed326bbU, 0x6351717e2f4c30fU, 0xbd5e43a2697fd61U, 0x17335afb3bbed9f1U,
  0xf4e42827b10ef9e9U, 0x7fbf38e2cdde9bb7U, 0x93fa6133aab45b5U, 0xbde003094714dddfU,
  0xb2b8e66cdcf16945U, 0x530716f4106949efU, 0x77fa639c4931c745U, 0xfbb242b0f3682d1fU,
  0x236f1ce405f3a47bU, 0x37a9174bb4e8f2ceU, 0xe80fc3aaf4a3644bU, 0x297067c50c011ec0U,
  0x68fbde0c3a0d6ab7U, 0x7b63bca4471b9d31U, 0x670133b00d0d1533U, 0xd05967c8f2320416U,
  0xe3bcb30bf9f21e0aU, 0xde1ed507cc3ab02dU, 0xffe74d2efaccfd25U, 0xdabbcc0508a50d00U,
  0x412a54f7153712f5U, 0xd70cc0fe43e1f929U, 0xfef8ffabd826e6fbU, 0xda2e12ba0910f5a3U,
  0x5de6abfedbd63227U, 0xc0e0f2af5419eb1bU, 0xf7b211da8c21241cU, 0xfe412ba3d92c20e5U,
  0xf545382841e5814eU, 0x4333bfc0b3d9eb00U, 0xdcf90be21a224701U, 0x2ef9fa2707d0eed3U,
  0xecb9f5481a190000U, 0x2b1608fcdbefb7f0U, 0xef0632fcf73d0830U, 0xbe1acfeeee1e710U,
  0x381b2c10cafb1035U, 0x12bc00d3d3f0112bU, 0xd411ea1edbd5d721U, 0xd8c5ed2228e831f5U,
  0x12d9da1e19bc23daU, 0x41c22d26fb2fb22eU, 0x1dc51bdcb9f13c28U, 0x47fec2213ea3e1fU,
  0xed25c20eb92be318U, 0x1bdc3efef37f7ecaU, 0x1a11e7b80311f613U, 0xc0dee05cd5c8a718U,
  0xc76b625b42e8d1cbU, 0xbe44d553b02ad161U, 0x434027baebe802c2U, 0xf6e9f20a2830fbbbU,
  0xec0feebec0d43137U, 0x179dd6dfc70a5118U, 0x2d10c44d39c4c404U, 0xf1e1b1315040f6e7U,
  0xcca1d742128dba47U, 0x2acd65c991e40809U, 0x4ad1efc7abf635a6U, 0x2482a397f143f36U,
  0xfb21d8c930bf3809U, 0xf204d4cb04e6c030U, 0x3bf341d80029d11aU, 0x30563fcf161e1c00U,
  0x5e0a37084958ecU, 0xcfe6ca0d3139d7cdU, 0xec2a4521b61ccdc3U, 0x26bf139e58002e1eU,
  0x52435d72f0fb726U, 0x3ed22fe514f26b20U, 0xfb32d6eca0a20dffU, 0xd5d3f4b1e93211eaU,
  0xd7b7d4d6ebff44baU, 0xeca55ac753bf01d7U, 0xad04253cb843b330U, 0x57153fd816cb02adU,
  0x37190f04e6d30defU, 0xecd233fd4512039U, 0xff1f03d8470d1c00U, 0xb800e614ec310616U,
  0xb01d17edb617b811U, 0xde1eb809b4da0708U, 0xb33f281b1d0f05f3U, 0xcfc13221ccc721b9U,
  0xef4f1d171ef93932U, 0xda24ed267f4f3426U, 0x422203e5d4240924U, 0x7c1b0c164c4aef5aU,
  0xfbeb3d57d43ae20fU, 0xdbb5bb2eb12555d6U, 0x2db6c32d111dc8c9U, 0xfe3d5ada1e010f26U,
  0x9eb68bf511938ecU, 0xd6a51ca81f2bc749U, 0x22ddeaa2cffbe4fcU, 0x6c5ebe0b9dd9db2eU,
  0x1461da0efad402acU, 0x1b340824b2adc2ecU, 0x288113f091b9abdfU, 0x3341b8141d024df7U,
  0xd518f3db03b6d80eU, 0xf245be50e0cbb74fU, 0x55b1f5361b285c4dU, 0x4dabde39e7a9382cU,
  0x2239f27b17081bf0U, 0xc94eb9491a21cc27U, 0x43c910c3928110c2U, 0x1d3236d1dc084ba2U,
  0x3fbee00733e44531U, 0xa720fe37049f9fe7U, 0xa41d71d21d021e7U, 0xfb20a411d9425d39U,
  0x1a287ef2d36cb32U, 0xba3e53a8a6bb8a28U, 0x2ce3d3cf3ac21b4fU, 0xf317de2717de3184U,
  0xc9e6cd4df9bde3c2U, 0x769708dd4319def4U, 0x76ac49d3d70e321bU, 0x20c40c44ccac7561U,
  0xdbf542cbe9441062U, 0xdcd47016ab2d0561U, 0xe45356c949c0fe09U, 0x10024ebffb73f355U,
  0x3a3cc00cde4c3c32U, 0x685ace2578560c60U, 0xf31d231011c651e3U, 0xbcd6df0c22d207c8U,
  0x2d0b8123e54bc80dU, 0xe1f907332c856853U, 0xbd71ab4cabe9850U, 0xeec6e96a31193a19U,
  0x69427a6f64c23332U, 0x560888823892825U, 0xc67f04205f5af2faU, 0xc964403217f647e4U,
  0xe42fa891ffc4d8d3U, 0xba2154a7235f3910U, 0xb7a6caee3f3618eeU, 0xb4daa33dbd2e47e9U,
  0xb5af1b56209b4b1bU, 0x4aa627afdedfc00bU, 0xb1109be0135090b9U, 0xe821c4f3c6d0d6eaU,
  0x30491d09f10ce4d9U, 0xa735c41e22272d3aU, 0xba38eb09f3edef01U, 0x3805dd031264b104U,
  0xad2e20544a763143U, 0x661eb112355b4a3U, 0xd7cbfc23197f37c5U, 0x55352fb90706e804U,
  0x414708d7d028e42eU, 0xe3d3f198f01ccdb3U, 0xc36e3805a528aec7U, 0xeea5e2b305e039deU,
  0xf69a365900cf2900U, 0xbebb194c48e2c9bfU, 0xbcd90fc7d75bcef2U, 0xe5312a280e8bfba2U,
  0x43f4f7351de5372aU, 0xd01bb322f4f50c15U, 0xb8dbf82d0e0ee4fdU, 0x91fb37cb142c0bc9U,
  0x1df9dadef4e0c7beU, 0x24c2c9cac848efbeU, 0x15461f09a8e1dbb1U, 0xee2014f82a0c99c3U,
  0x9b1a11c2d7f4acedU, 0x3803cb25d8d0e523U, 0x261cdd0229e70ec2U, 0x25fa3bbd7f3f5823U,
  0xd2001bd5c8dc0c31U, 0xff1625eb9904380dU, 0xf70c04ed2be83816U, 0x3bbe1fee7f22e5fbU,
  0x1b4bbd49d39b11b1U, 0xc340d6e6b9c3e7d6U, 0x521d233b17262eb9U, 0xfeed3cfdff1f3b16U,
  0x3bf4becafbdfe946U, 0x49f6e61aa1272e44U, 0xdae4c141bace03eeU, 0xa9fa14b0db3a7f7U,
  0x23055cb3eb18cfbaU, 0xe7c7b91810ccd841U, 0x17bb24bcc2ecf7c3U, 0x495c2da40dcc8cf5U,
  0x98e937ddfb06ab11U, 0x1457d765003c41e4U, 0xcbae7356d06f4d7aU, 0x93f2d18430fd1aaU,
  0xa144441089c9b105U, 0xc0cce722376d08faU, 0xd2c27a315716347U, 0x1650c1eec2e01e55U,
  0x94f404035f9bd03U, 0x3cdd06217fbdf73cU, 0x1cdc17c4dada9e11U, 0x9aafcba6b9213a1aU,
  0x33a4399a19cd3e14U, 0xb421f8fc60bfd900U, 0xdf3f5dc60caec3ffU, 0x4a0b0a103f17f425U,
  0xa7bddfef0afc0255U, 0xc63afb92dce62603U, 0xcb061c2f313af4b3U, 0xf53dcea4442c2641U,
  0xe4eedf4e9fd360d2U, 0x3f2c6e4e53701eeU, 0xdc1a24d82ed1a76dU, 0xb528c0d3ac1a3249U,
  0x7feb321ebdeb551dU, 0xf1f22314be3de221U, 0x51fa27ed2208f927U, 0xb522e2ea16f4f1eaU,
  0x1bf12210adf26cf0U, 0xb533220c3e5b17d4U, 0xc2d4eccd999cfda5U, 0xfb1018f1263cbf21U,
  0xa3af058ceb5fe0dU, 0x18bdaf07461fa7f9U, 0xe9df08d75fdd5761U, 0x50387743f71d2709U,
  0x120616d2bbeacd0dU, 0x10b5ecf5f30fafbaU, 0xfee9a0a53833d630U, 0xcaf77f20d1d04ec9U,
  0x29d32f3fcf31eee4U, 0xeb2dddcec209e80cU, 0xecb35af6b6fe2dfcU, 0x53a41716f2fcf6b9U,
  0xd7c104dbdb2ab0e8U, 0xf0cddcbc514dafdcU, 0x7bee6e2da141bfaU, 0xeda3b8020cc7c6d7U,
  0x101c5610f5ed4bdeU, 0x18f6ddaa4d55e723U, 0xfca4ed3e1e341df2U, 0x26f22b376e2cdfe9U,
  0x163d07285290b239U, 0x7f260ac1d735d71cU, 0x22e40f0c4f4df5b9U, 0x556c1cdcb9fa2afcU,
  0x3294d53516d0d542U, 0x260ff41c030bba02U, 0x13b41ab0e546cb22U, 0x9d1f8cc12f0ccbeU,
  0x2d1e5700e10dbceaU, 0xe1221d038116fa05U, 0xf534d1fc142fddb3U, 0xfbdc1f15fdb510d7U,
  0xe4ecaae2032ffb0aU, 0x34f41607fed5eb19U, 0x1158e40ec5f6ca42U, 0x572b3db0393d2818U,
  0x5eed07c8d7c7b52cU, 0x83df46e15dfebecU, 0xddd7ea37ee52ca0dU, 0xcd0e4e1dd054660U,
  0xda1d9d3303c7113cU, 0x7f68190b12dc21f0U, 0xd42e4e4f7cb0cecU, 0xed08b40419eed909U,
  0x34dd2ce914fd23d3U, 0xdcb2605faeece3cU, 0xf8feebfed811e4e6U, 0xacee9fefe34cddeU,
  0x11f31930021347f5U, 0xf515ebf3dced2fefU, 0x2dcefb38f90823f1U, 0xd3aaf9d24323a4fcU,
  0x422d40f2df382cfdU, 0x1fb1df28d539cf3eU, 0xb9d6fc17fb6109a4U, 0x811baf60ed0404caU,
  0x47035d27dc48e35aU, 0x51192dbcbb990403U, 0xe74f0bf2f857eb36U, 0xb8cd0a3932463cf8U,
  0xe828e5d4d7f932f9U, 0xbefdfde314bb2249U, 0x34ce081649db37c1U, 0x31c10612fb35f83eU,
  0xd047d7bdcefcc230U, 0xbf05f9fadb27d236U, 0x1cf0d224aee21d14U, 0x17e6c67a71dc7de5U,
  0xd843eb38135e3dedU, 0xf168cee7bd349723U, 0x6efc0006cee0205bU, 0x4ee63bcf3925386bU,
  0x7250455effa6626U, 0xe6631bf1b9cbcabfU, 0x8ce736ccdb3b2ddcU, 0xf5f8fff3620f11e7U,
  0x1bff0639b5de19f0U, 0x3acecc0ce82a2bd9U, 0xeccb50d9c9b0c2dcU, 0xd3cbda3a9d290408U,
  0xd2aed5b0e8db7f23U, 0x1643d8d4b0bf5452U, 0xefd7d50a5d44e3d2U, 0x67721c2c3c2a12c9U,
  0xedefc9a70a08395eU, 0xfad4f2d6110cf94dU, 0xf1ecd23d684e2d12U, 0xdbb2bcec38d8fedfU,
  0x12dd2c21e67d1d1U, 0x7e2c817af24d1f0U, 0xb200ee050cca2323U, 0xcaa217033914efe8U,
  0xf51cb712c2811004U, 0xd02ef7ebde0fef15U, 0xcbcde2cf4245d1d4U, 0xd41a2447d80c2ddfU,
  0xe04ce6e83347f5faU, 0x29e934e3ffbf36daU, 0xebdc380e0cbf2867U, 0xddadf062e251315U,
  0x2f60a45e9ffff35U, 0xd50404f327eafaf5U, 0x2d3af37fcfcc20c2U, 0x25380ce85850df39U,
  0xdbce30f8dcf343d9U, 0x1e19db15d4d420f5U, 0xc0c9bfb4d8153125U, 0xd4f4e7c13c2d33afU,
  0xe3bcf34fc24cc2dbU, 0x54d4bf4ddae431d8U, 0x38045407f00630U, 0xba4fe7ebdbf8c1f9U,
  0xbe561f293e1fe036U, 0xe452e94be7e30f1cU, 0x7d64a2b1720e8f0U, 0xc6daf6422c22d933U,
  0x1110d8392353fd0bU, 0x17f2ff14fe191b40U, 0xc072b4cdbd16eefU, 0x7f17103c2cc33735U,
  0x3c120f4bd080f3fU, 0xf24bd70420e5f7e3U, 0xfc49ec0eea05bed9U, 0x26ff410dbcbbc0b4U,
  0xfff8cae70121d1U, 0xf8fa0b211bede305U, 0xd6d0e0b621e1d9f4U, 0xd6fd32ec5f35f7ddU,
  0x1ae1e530dbb207d1U, 0x15babfe008af810cU, 0x20d01834de352e17U, 0xd316d1fcb4d2d3a4U,
  0xc7f21606d51c2d32U, 0x8353fd9deb8f500U, 0xe33ebfdc07b4b31fU, 0x29e920261a031f00U,
  0xd40c452b49ef06e5U, 0xe51d18101f510d19U, 0xa0c524a8f2b6670bU, 0xd6baf36050bcd5deU,
  0xc6aafc02d9c18e52U, 0xe8b3bd1e23a9d5U, 0x22171f7329773617U, 0x4fe0135ed03e4813U,
  0x3fc22a35452beee1U, 0xcfc5fc1fe9a116d3U, 0xa3be10d7abf5bed1U, 0xc61c1965b6e9fffaU,
  0x1e4934457fffbd26U, 0x60e920ccfc0b22dbU, 0xd84f1fce1f5e39ccU, 0x18356a4c4c044edaU,
  0xffe4e348fae943c1U, 0x251b4701bbad2334U, 0x49d201110ded49ecU, 0xc728e0c7ab063ef5U,
  0xab21dad1ffe41258U, 0xedd3f30d5b44fcffU, 0xcedeeeacf352d950U, 0x56a214c9f3f9d8ffU,
  0x9e292c16812f50e7U, 0x1c32c0ebdc4b9eb4U, 0xe530aef515e0d2e4U, 0x1ce71739c10dc940U,
  0x34fc14f7edbdfa22U, 0x26c513d6f0185937U, 0xe604b42a28264242U, 0xca4b2d54194f1911U,
  0xc1d4e5dd1a152a3eU, 0xb4cdb5c0cb405beU, 0x240c4752150aeafdU, 0x5d37f6eacaceb943U,
  0x17d20f72520439e2U, 0xe4efd42b0c39e221U, 0xa2cde012e45f141U, 0xf1ce30d608c34d0eU,
  0x4f3619a9f91bc6d0U, 0xbe0dded32df2e57fU, 0xfe3d262fd4b7b89fU, 0x54e708f8c9fed2c7U,
  0x4d151d16c3f1cfe5U, 0x5f12c6a8b5f43511U, 0xecd2f5e55a01e74bU, 0x2bbbbf8d0db4997fU,
  0xbd002df76d3fa70dU, 0x4f1eddc48bb09cbU, 0x2400bac1b3251517U, 0xc42b1efb53d6e8fcU,
  0x28f4393606af11f1U, 0xdd073bdce5fee2fdU, 0xafe051de4cb3a12U, 0xe3f7e9cfffb52ce2U,
  0x84945afe613f318U, 0xe6ab3a39cbd2b435U, 0xde3dd7465f1de42cU, 0x3ae9c5461a03bec4U,
  0xf8d829f53f32e8c2U, 0xe92d1207ccc6e4d2U, 0x253e5547e5dbdbd1U, 0xf9e9b4290fb101e3U,
  0x26dbb2dc9c1544f4U, 0x1cf8f8390ddbcdf6U, 0xa64e4bfcf934f7f6U, 0xc5eecec7e92906d0U,
  0x532b5f37dd2443e5U, 0xf40ccdaab2c5e259U, 0x45bfabf9407f493eU, 0xfbd7eeca02f2dbcdU,
  0xc509ef460acc4c0aU, 0xd80108010ec8d72fU, 0xfcafd1adbd4c9c9U, 0x11606fbc2c2109faU,
  0xfead37cc3cd35122U, 0x37b2c60f210c0701U, 0xd31f322615104df6U, 0x1eede708e12c09d3U,
  0x25e82e7ff5ef0516U, 0x8f00aff243cec04U, 0xd428e12549ec2efbU, 0xde09fb00f90ee3d9U,
  0xc85515b556e734e1U, 0x15d6e31ab4dc22ecU, 0x25c5210fd6dfc625U, 0x290332414cc93fefU,
  0x33f14b3a50c1f0caU, 0x1e7ee82ffce9c366U, 0x451feedc213e98c0U, 0xd6154e154dd2db40U,
  0x2bb85628c2b82b49U, 0xe8f724b80e030cacU, 0x4d9aebac1b0bed25U, 0xd2c31ee017e110d3U,
  0x2b35b011bd334129U, 0xd902d4014e34d655U, 0x567f15080323c000U, 0x9e5b52fc33b5d5a9U,
  0x4065a3a6f139cfaU, 0xd5110bc318dd5ffaU, 0x440851331621d5ebU, 0xf2ee3209e1394604U,
  0xc427e91909b92ed4U, 0x161a50b1733ec010U, 0x33f3ca2cc8e335d1U, 0x1c36122f1cc2e53cU,
  0x11dfe10e232502c5U, 0xcce1c63cf8061300U, 0xdec0e20aecf4dfefU, 0xf22ff900d32628c5U,
  0xdd0d4dfe945e23dU, 0x30bd04f7f27f0a72U, 0xff25e90a1c04e3eaU, 0xf7e9db031cc72bc6U,
  0xebe3da05c742f6edU, 0xe231e4372c120d33U, 0xb022e0cdbdbb66dbU, 0x44057f20aa11f60eU,
  0xbad4d1fd22c21e0aU, 0xce12f21fbdcd3ce6U, 0x161e330a34fb0536U, 0xe1dbf9231db8560aU,
  0x1af5da2a11be2d29U, 0xe32ff9ed09dbd1b4U, 0x360143e04fedd036U, 0xc910c4080f0bd00cU,
  0xf02c0203ee1a58d5U, 0xf4f5f0e4210bcf21U, 0x15f3d821374a3322U, 0x1009e7687114be4cU,
  0x16c9c154ea2559bbU, 0xbb98070d0e3c1085U, 0xdaf4e65de404e9f1U, 0x132b261c19f9f106U,
  0x1736b8df100624e2U, 0xd3cd43c23811d6f3U, 0x5dc5d9eca2cf45eaU, 0xf7f7f3e9ce7f51acU,
  0x402c442632ad0efeU, 0x3d506bfeecfac64U, 0x4ff5d8e002e20895U, 0xd4400b150b03272dU,
  0xc200b1cc11de0a41U, 0xfbdb09b1f8228634U, 0x2fad36f310d919e8U, 0x1dd2fd2bb81e04fbU,
  0x19e4d9c83dcf7f41U, 0xb4bdbffdbd38f1a9U, 0x2aefd1ff17301144U, 0x3d2f3b1fe4440f00U,
  0x111c39df53210ce5U, 0xd354eed3ea09fb35U, 0x2ef7e20bda1f69d0U, 0xece8f2dc1ddc39aaU,
  0xe8c370ee11e3af4aU, 0xd1c8f520e5ea252aU, 0x3aec581b19fee1bcU, 0x2fc41deae911e335U,
  0x506d2008292aa7bdU, 0xdc9b1700fe16be75U, 0x3b29dcc2eae5e0c8U, 0x8b7271e6fdc646bU,
  0x62893fd41faf102eU, 0x4940c0ef5f096ebeU, 0x28f61746bfca620aU, 0x1f350bedb072f82cU,
  0xa027d4219f1ff211U, 0x3359e1f62fb71999U, 0x10e64f07ebdb4e63U, 0x99e02f0cd438bf90U,
  0xfe05072c1b428114U, 0xadb03a03081bbe3aU, 0x50fe12dbca414632U, 0xd5c727dffd27e034U,
  0x2ef021c439e0f509U, 0xdd1e1ac80e5eb71cU, 0xe1123efaa3fcc222U, 0x23f502ee191117b7U,
  0xc3c2cfa23b600ccU, 0xc0e123d19e60334U, 0xce43c529191205f1U, 0x230abfe6ad9f14ceU,
  0xe60546cc550424ffU, 0x352bffe32722e618U, 0xca24237f010fc0fdU, 0x1316e92942e301e6U,
  0xd9c7f0faf9fcd0e7U, 0xbe6fd171e471fd7U, 0xd1eaf9c4fbf4dad8U, 0xfe04d0d9ceddc7ddU,
  0xf0de1429fced0ad4U, 0x100b1b013009130fU, 0xf2c0243cd7d9482fU, 0x211dc8d7da01d8d7U,
  0x8081e130bfa11U, 0x3606c71c2506d917U, 0x5ef340301fbe009U, 0x1ffe4c36bc47fa10U,
  0x187f1ddcd1ff09daU, 0xa918172730d22a3eU, 0x2724342a4b4997f3U, 0x37fb26d3d6f821d3U,
  0xe2d5027fdf017daU, 0x25d520bd13e46861U, 0xa5de3db8d005e800U, 0x71ee7c4d4ca13cdU,
  0x30f1413a4034ee3bU, 0xf3f2f152edd6023dU, 0xc1a15d2f20711e4U, 0xe04ff22af0e21519U,
  0xd021d900ee0ac0b6U, 0xbb0942af22ef0c78U, 0xe83b06c1e2e862f9U, 0x17050354eeea2b81U,
  0xd6fef7cc1725f60bU, 0xf41c0fee2bfbf3d6U, 0xdef1c4b0e8d0b2edU, 0xeae8d917aceb24d5U,
  0xf721f9f725e32a42U, 0xecd2ec29f0fced34U, 0xee1fd5181cde21ffU, 0xfe18263d04c4e1d1U,
  0xc4613a0802413125U, 0xd83f3611dcd409bfU, 0xd4e001d8e915b1b9U, 0x19dc42103cb9373cU,
  0xee0e40ea5125f8e2U, 0xa921cc27dd7fed1cU, 0xd9a9250ff171b04eU, 0x32c4e813ecddfcf0U,
  0x4153deb53c116642U, 0xd44c59e0845aac45U, 0xec36e3d529e83341U, 0xf73ff31a37490f4aU,
  0xda41543a0d3dab14U, 0xbb4465ba04fe2a7fU, 0xd3ed1e47ecece3f1U, 0xc4f1712cfb3e09a1U,
  0xbf1c5bc56efb24aU, 0x312b40f1fc365515U, 0x230dc7fdda015df7U, 0xdfaf4decc4331caeU,
  0xf904ff5f57e1bd4bU, 0x1e163162c4413c0cU, 0x9d2c2c71ea6b201U, 0x9f8e25fff31b46e0U,
  0x4d30e50225e540d4U, 0xcfe96404f537e72dU, 0xc430bb1ce55855bbU, 0x3c054f2fd4a1c7d7U,
  0x2004150a9342f5d6U, 0xe5fff0102e06d50cU, 0xaef67fb20c1bd30aU, 0xfa88a8b927fd50caU,
  0x18bd4927b94b68edU, 0x4c1eb6dbaca1e949U, 0x40c276269040ed2dU, 0x3df6ce62a3487fe4U,
  0x203291d02fafc8b0U, 0xe737c8f6ae19d0bcU, 0x33bc051c3fd51cafU, 0xc43bb1d8613e22bU,
  0xca6ff2820f73fe7U, 0x4e218defd826eaabU, 0x5b54f597db4023e8U, 0xd966fec5e5dc4f00U,
  0x59e0f31513491506U, 0xcfdacb34c1fa48c6U, 0xe6352d41cc8841ebU, 0x62ff874243cb92ffU,
  0xee1823f43aedce71U, 0xd190cd89bed09d3U, 0xed4920f9ebe10b1eU, 0xc790f4c4d207ca0eU,
  0xfc83e117a3bccf5U, 0xf6ebff3a0b03fe16U, 0x11faced4c5e48111U, 0x2df6bbd5cff4f1ddU,
  0x2e2300ddde24e7beU, 0x2c3a020616ca2533U, 0xd548ea0c2a14e427U, 0x11e33250ea3ad47U,
  0x25130905f74b0b4bU, 0xdff91e3b1a070db7U, 0xd8092ad3f900d6d5U, 0xe4bcbd0a20ef0b1aU,
  0xc629c1cde703b9e9U, 0x716bd8ed128122e6U, 0x12cdcfa1941414dU, 0x35f0390c27e4cb0bU,
  0xea3c383c68cc2715U, 0x20b534bd40f211f9U, 0xeeeae0ead8fff90eU, 0xa1c193afa27cf1aU,
  0x30f9cfd4264823f8U, 0xd711fcb6ea291dd0U, 0xd94604e82b93fdd6U, 0xced609507508b02dU,
  0x5aa8ff95db132f10U, 0xb53643442aecf318U, 0x27d4f2051c26370dU, 0xd0fccc1c17cb2a57U,
  0x12cb30be0ce25abU, 0xd2eb1bd346f144e7U, 0x8e2c6d1ff0d2ee2U, 0x5140e3fc42e820f4U,
  0x4b51d9b015593bf7U, 0xd7cbba010045feffU, 0x42fbd73929e50d23U, 0x15200f1449e62032U,
  0xc60a0f7ff1284a1eU, 0x2625c0c9341902f8U, 0xf4b022eb5339d822U, 0x9d3a32b836e80cedU,
  0xa1cc379713d0f40eU, 0x3fc7d8423706b9a0U, 0xc1908da6d3a207fU, 0xa62dccf8eedd9192U,
  0x4ffc3a5b37df2cf7U, 0xb0c116e03ffe4c32U, 0xc049b7c00af9aea8U, 0xe9a7ba6a2725a9e6U,
  0x230ffba5e1d5a3aeU, 0xe0551c43a717bdfaU, 0x33b440eccccdf0a6U, 0xdbd0963d709e2d0U,
  0x9ff2c24f6ad3c1cU, 0x35d5151ef0bc0fc7U, 0xfe702ea2637dce5U, 0x5a0dbc19bfc8e931U,
  0xeccd181725c224beU, 0x4ab8122fd4e3ed32U, 0xf3c5f5c0311d24ebU, 0xbb2d2926be1ff5dfU,
  0xf171ac049dbd8eeU, 0x6c10ea32ec2fe811U, 0xfd0c22cd24ea5815U, 0xed0a2bef0fdad543U,
  0x10ec08de0b0cdcebU, 0x69d3e6feee45ee7fU, 0xeaead43753c117deU, 0xeca5f9e222b0233cU,
  0xe061a7d82f12b814U, 0x242f5193ccdc0b3U, 0xf45036d8dd1544a0U, 0x22180b7f4ace5ad9U,
  0xfb3512b2ecd41eedU, 0x12ddb2cfce11f8b8U, 0x181a5613df061817U, 0xf61b19f6321a31e1U,
  0x18cee4d4f11cefdeU, 0x4b013a2024de2eb6U, 0x66c8cdb14a18c546U, 0x1306cd26b2161947U,
  0x921ff3086cf0311fU, 0x32f8019646f52d49U, 0xfa3fe8233607e82aU, 0xe6cb3314ddd93a11U,
  0xe2bff70424e5dff6U, 0x572b0ffbf0efe8e4U, 0x37d0e4c6f20627daU, 0xcfe98124d8c427fcU,
  0xe93145f6dba7dac7U, 0xd80be9ec4e0a06f5U, 0xddfc23c52efe191dU, 0x27fb2ae2e4ccf602U,
  0xb1bdebd4ed08d5U, 0x11d71f14de2fe9cfU, 0x3319efa9041b07fdU, 0x3b59f3e81ce4440aU,
  0x24732e0f4cfec16U, 0xcccc3bd52b09ca13U, 0xdf1d30e04742073cU, 0x93322f0decaae4fbU,
  0x270143cb1911fc6bU, 0x4a50a24bc1df5b6U, 0x3542229fa621243fU, 0xec0cf4dcfaf03f01U,
  0x1c8d71f0ae64264U, 0x1f4407171dfb26c4U, 0xe9e4f750273829f2U, 0xea50f13442f4c913U,
  0x50847f0ea12ec7fU, 0x16340b13b8143514U, 0x280d04f0ac28fcdeU, 0x13b0eddd806f0deU,
  0xbcf3231bf31c08c5U, 0xdac70bd4f7e7cadeU, 0xd8dcee2c16042421U, 0x181017d543f3c200U,
  0xf10fccfbcc39b6eaU, 0x19ea2c560b0823cfU, 0xd8f0c7dbb6cbeac8U, 0x2649f1f8152a3df5U,
  0xd4d5e715e1f2d3d9U, 0xdce1af1bbaca0b0cU, 0xace41b08129a3e28U, 0xfcc6072919f2fd06U,
  0x681ad521317f07ebU, 0xf5eac3f6a1a1eeaeU, 0x40dfd213ddc60a30U, 0x53d24d55f1071a26U,
  0x5fbd18edde31d1cU, 0xf6e32e9f1b09d52aU, 0xceeebd100d34c34eU, 0x400b2ba1b5b028f2U,
  0x8a0dc0a2c245cad7U, 0xcce7f0ac03d6d5f9U, 0x21cbb53ee3cbf30fU, 0xec10d9c981472c39U,
  0xe31c090f1e02ff2aU, 0x6f041d414d0ccf60U, 0xca69f3efb7f80b33U, 0xdcd806d013241e04U,
  0x392924c6120f0ab2U, 0x1316dc32f2012b2eU, 0xe0d22bf6e7dc0003U, 0x20d7cdf7ba14d7d4U,
  0x3902b8cfca253e01U, 0xd3fef9cf1a20dd1cU, 0xe0163feec918fa29U, 0xec090e39b7daf9d2U,
  0xdf0316eee731da4dU, 0xcee8d207cf080df6U, 0x28d3e610fb1a04fbU, 0x1b05e6fbebdfeb33U,
  0x47ffa0dd11846f3U, 0xce0b1210c7dddf3cU, 0xccf4e013cbc50231U, 0x40c0d7002bce3ae1U,
  0xf7cf2d0e34792242U, 0x1c1b1307e2d6e9aeU, 0x7ff20cf60ce4da13U, 0xd30c303052f21c38U,
  0x40392b3936e1f027U, 0x8d6d6e4d328e9d8U, 0x3c1f35ee1dd9fde8U, 0x1237c9deefe30df9U,
  0xb1b0ec217dd23ebU, 0x443b0be9d0f9e2e7U, 0xe6391ddd46fd1dd6U, 0xf3feefd05f7e3baU,
  0xf4c6fa43011cd347U, 0xddbecb2ed5cdce35U, 0x3e5bc410cc4f19cfU, 0xec192be4be18dde6U,
  0xc648edb1e106504aU, 0x10593235e2492f15U, 0x1dfafa03f1e0d4b8U, 0xb06b92005c82ce8U,
  0xe43d03a70ee9f41bU, 0x192d1ec6fbdae1a9U, 0x2208f4fbe6f37f04U, 0x9c41b30172bcde9U,
  0x44ddc5edcdfe0003U, 0xd002c2c1fa260646U, 0xde59640e360529ecU, 0xd60d29201332c925U,
  0xdfffeaefca55e131U, 0xdd181128f308c74bU, 0x6c7e211fa221a2bU, 0x4d2e14e3021517deU,
  0xd7353408321ed711U, 0xc32cf0123703fc1fU, 0x1aea2f253917b40dU, 0xc632e9571f1cf83aU,
  0xe4fd1f147ff84100U, 0x3af8b1ccffcac702U, 0x2d04c7d3f2dd36e1U, 0x12cb34c2351f13efU,
  0xf8e40b42f6c0dfdeU, 0xe72b243dd1dfd556U, 0xa1e044d10d11dc99U, 0x17cfdb21afbc1032U,
  0x37c12335b5d531b8U, 0x1414ee2412ff730dU, 0xff4ccc2ae337f4ffU, 0x132b237713106862U,
  0xf8ece11e150bcc25U, 0x4d01612ab202da37U, 0x14591df536aaf9b9U, 0x412c0aa74b14a506U,
  0x53307f3ae2b6543eU, 0x30db74ffc20e903U, 0xa30df315cf43b722U, 0xd18160139fd96feU,
  0x3b395510fa2dbcd1U, 0xd21f36fc06ead0caU, 0x13a81fd5eda407fdU, 0xcfa1c6260cdff2c0U,
  0xc2defd08f7c5d3d5U, 0x7117fc430094cffU, 0x1c08feae9bbbb43fU, 0xd5cf3bf84415c7e5U,
  0xb632152afaed1303U, 0xa11ac40053428baU, 0x60c2ec2605e4e23eU, 0xe016e42f14d562f2U,
  0x11bc2a2d9dc2640U, 0xd85cbffc01f728U, 0x3e14cc37d60718d6U, 0x562f14b3323705eeU,
  0x35bc9ffe6112d4d5U, 0xe6ee1535e609f629U, 0xbe0edaf5c9fa83f9U, 0x6c08041603ffc814U,
  0x28f149dff4f9fbcfU, 0x3be526d117ec2dd2U, 0xf4fe3ce06bc3e217U, 0x800fce435ca0933U,
  0xfeae301b914bd7fU, 0xca2003d74ce3ca24U, 0x14e9ffce0928ceb9U, 0x3ddfa73eab27f6ccU,
  0xd63ef33e1e14efc7U, 0xf74426e7a9fd17f0U, 0x22cd273a10f0cf05U, 0x2935dce61edb25d0U,
  0xf9e9b9b4b33206ccU, 0xedf1264b4b58c0daU, 0xa3df83537d1292fU, 0x3e2af1fc32e4e2dcU,
  0x15272828e1d8e7b3U, 0xf93310dbdf42d708U, 0xc8e0c5331e7ff9d4U, 0xe9dc06bab3e95219U,
  0xbed6e00bd5f82316U, 0xe1f626f7fb02ce1dU, 0xe213f4ccc10ed7e7U, 0x233842e7e0fcf205U,
  0xe1f9281d37f9565aU, 0xbe413b6d5ec1ce0U, 0x56377f31f13dd8f8U, 0xe0ecec1bff214bf3U,
  0xd1f91d7dcadfeff2U, 0xf404d4f4d738d311U, 0xd8f5291d23190b03U, 0x29d4e91422e6fc02U,
  0xba14d2dbeeda4b0fU, 0x7eb29e6c5cfd3f8U, 0xfa922e1c2329f4efU, 0xc1d228f4030ae8bdU,
  0x1833f4c6fae60d20U, 0x4db02ebcdbffc05U, 0x3bd233ef765050eaU, 0xcdcbb0cff1e7d5cfU,
  0x7f47e000021412d0U, 0x19b352215fefcdd0U, 0x330cfdb62900daddU, 0xd7071a0eeb06cd15U,
  0x2fc022f3659b629U, 0xcedc26c8d819e3beU, 0x2a946dbde0a15dcU, 0xf625d6b5bc3314f3U,
  0xcdfc20cbfbc6f2f3U, 0x4a7f1caf5bfbf5fbU, 0x7a21f02a464dde78U, 0xf1f7cab59eb9576eU,
  0x1014a3d8bf100c41U, 0x2f257c405745567U, 0x512bf71a1d34d23bU, 0x1175c02f0dd6bc3bU,
  0x5ee746f688093046U, 0x48c47f16d32740d7U, 0x4140c40ee8dddefeU, 0xef02f93e6865c5afU,
  0x24e49e46247efceU, 0x66e7f21cfd23dabcU, 0xd746b7de682f0f10U, 0x2f2908e0bc2cccbeU,
  0x46dea19ca8043f26U, 0x11314e11d0daf06U, 0xf80befacd3f727e9U, 0x1415fd812bfe0806U,
  0x371fbb30a6e71b24U, 0xb4d3014297c83cc8U, 0xe2c20ed9c3fd0412U, 0x302fd41302caf515U,
  0xf7f1b004030bdc9eU, 0xd8031f075b32bfe8U, 0x201fb09dd2c226edU, 0x3e35ff9cf506d821U,
  0x53bc1d4e25a90a05U, 0xb8e9c152c0cd2915U, 0x22c300714929fee2U, 0x3c5dfce3cffe34feU,
  0x28bc02493cf52478U, 0xc9d6225a96f4a763U, 0x1f00154e26ec2675U, 0xdfe12c14c5c80005U,
  0xcc2bf1e91e0fcf01U, 0x24248b9286dd309U, 0xf719b143242fd431U, 0xdb270426d32121e7U,
  0xd77f01d4f122e033U, 0x371b3f982d4a3d44U, 0xb9330e3f14fdfad9U, 0x16b6e92e1f17fee7U,
  0xd5fdee5a16c715c8U, 0x3d1fd553214e69feU, 0xfcfd0ec02a9ab54fU, 0xd21d1828e108dcdfU,
  0xb170b69be52bdb9U, 0xc1241c108e9483aU, 0x3827394f553fd2fbU, 0x3bc9f7f8d4c9dc1eU,
  0xb4acaca6262215ddU, 0xea04e29eb1258e6U, 0x7fed1f09e0e5a643U, 0x17a7f5d53d142f65U,
  0x322beaa1bcb5e1f8U, 0xc456f3fb1c22f40bU, 0xfe084734c6cef7d7U, 0x1dfbe64bed27311dU,
  0xd8da1656e2e1efe0U, 0xf945e9fcdbb8aadbU, 0x2435f7cf7f1fb010U, 0xdd24173802d7e925U,
  0x6e5bacbeafffdbcU, 0x40ce3e412373e4eU, 0xea46062fd916e30cU, 0xebed2819ce21dfbeU,
  0xd43045de610835b4U, 0xbbe750fee5f6311eU, 0xa1dcad5d0241229U, 0xeac1ba0cfe2fee08U,
  0x12701db2627ea33U, 0x500abfcce92e0103U, 0x65537ef24cbf601U, 0xbfb8191f09ca4fafU,
  0x510f7e7fe0041df5U, 0xd5eadcd1271c20d2U, 0x1f1ff1f8feea20f5U, 0x16300d15f5dbe991U,
  0xf32cd9fbfed1283aU, 0xe125d1df0d3eed06U, 0xf6fdd71d12e7c812U, 0xd41e3af527dc3dd7U,
  0xc3bdc8510855bd4eU, 0x4c2ee0b06c03d01U, 0x27d735e9f2d90eddU, 0x2732113211f71802U,
  0xeaf93310dcf2f120U, 0x10cee5cb4fad1153U, 0x6c0cab2a2cc4fac6U, 0xfb2d00bb160e0719U,
  0x291e070535f01ec8U, 0xdd20481628c1d317U, 0xbedfd09f925c448U, 0x1e4709e740f8de19U,
  0x18d4cbd615d432d8U, 0xc6e3e427d8351bdaU, 0xdb7ffb63032f4b3fU, 0x5132d0d6150e1ad8U,
  0x8c1ca30ca36dc08U, 0x1d25d4d6c228eee5U, 0xf4fc0ade1a0402dcU, 0x5e1fc71708c60ed5U,
  0xe5d60d3f384cd6efU, 0x2c0cecd0c5e604f1U, 0xfef427f12aee2ae7U, 0x90ff0ee1dd1e5daU,
  0x137fe81f1101d4faU, 0xdd8e2e9002e21daU, 0x12e9e52119ffc1f6U, 0xeae7140ee2e0f01aU,
  0x2b330dc12ef19e6U, 0x10250342004221ddU, 0xe512d031322d22f4U, 0xc237043c412ccbc8U,
  0x3ad9d7cc9b13eff9U, 0x164f5cd2be43802U, 0xc8e0b5ca5ad00453U, 0xe9e337bacbb011dbU,
  0xb23e8ef1d12b1U, 0xbcb20de82fcdd7e1U, 0x28d94bfbecaf1d36U, 0x10e7bde7d1121dd4U,
  0x4317c634af021227U, 0x1c360132253ae007U, 0x21ce5171ddafb05U, 0xe31038307fa5fd30U,
  0x22aa47f139d505b4U, 0x2ad607f9d6599bf0U, 0xf089c4d19241cccU, 0x10d6e5b73e072cc5U,
  0x181d1ca4d8b32e1fU, 0x336685aa50f1005U, 0xe0f5d7c6acaa5621U, 0xb31901c781300fdeU,
  0xd954ea66c24746d0U, 0x290eb14fc7ac313eU, 0xe272f0734d53403U, 0x3932da9e103d21aeU,
  0x6efbccf3afe3033U, 0x221eb5020a0eea50U, 0xb7f264f7ce2021feU, 0xe4e2d512f9fd0216U,
  0xaac735d417033f12U, 0xffce09260301042cU, 0x491f46dcc7f7d3b8U, 0xcddb604758e6e85aU,
  0xece53affba330dfaU, 0xd2da402112192ac1U, 0x1affe638101621fbU, 0x40e5087f09f2313aU,
  0x300cdccb25002213U, 0x2f55ee0dfc3e0f1U, 0x24f8c52dfc1ef81dU, 0x13cbe4e0e4c91621U,
  0xff3cceb30603db6aU, 0x576ef5d1ff311e1bU, 0x3e10f9b638dd0e11U, 0xc4b350dec148c811U,
  0xd40409d9ccdb044cU, 0x845290fff433d8dcU, 0xeed823fee4cf7015U, 0x27e4ad0ab4b90ae9U,
  0xddf6a526362a2b52U, 0x2081630cda1fd9c1U, 0x57b2645afdf94525U, 0x1ff2eadd17ec2fadU,
  0x5934d950daed3f0cU, 0x973a1537412c3855U, 0x19630b33d332a2beU, 0x36240503c32fd9eaU,
  0xa73d5540f7e302b6U, 0x7eb60658209c01f6U, 0x184351a9b6027101U, 0x6bedb914d21e4edeU,
  0x37b6a4ca9f1b3e20U, 0xc52dd46b6e0efd2bU, 0xc9ffe711e6e41b4aU, 0x8e503f143d6f049U,
  0x4f69dce2dfb33008U, 0xe7f76dc9ae9e54b1U, 0xd540163bd7544907U, 0xb6d6e8b5ca9d08a5U,
  0xebf5de4734c6732U, 0x5c1e7f4261d931adU, 0xc50b4a64e644054eU, 0x23dcc1dde6f3f81fU,
  0x8e2d6b1f1ec29f1U, 0x384d2b7f6ce7f709U, 0x3515bfe9211436ecU, 0xedd8ff1214a7ce27U,
  0xdd1f0147905d952U, 0x19d74ae0d5df3a29U, 0x2bec4e372677ecf9U, 0x3c529942c939cdb6U,
  0x17f8efd32248f915U, 0x3fd7fbc6d13cb5deU, 0xe03bffecd5ee2fc0U, 0xd3bb0946f8fea918U,
  0xd16f0f30a161041U, 0xb1dcfeba12d7f028U, 0xf20f1f210addedcfU, 0xccb7fc0d081b3b3dU,
  0x5f4e0023baeab5e9U, 0x332bf4d3302723b1U, 0xdcc681f1cbea20e0U, 0x16d0af05e7cfc427U,
  0xb31fee93d800d323U, 0x260ee03fd7ee0131U, 0xc82af434fae137b8U, 0xf11ba34dd414ef8U,
  0x390ab7e2bb03d239U, 0x43f8e317cd33e039U, 0x2e5222ddfa29fe38U, 0x121edec50a3ec413U,
  0x2318e9ddf301b730U, 0xdc0105f63c3717d3U, 0xdbcff4c1efcb2005U, 0xcffbe3eb2eea0cebU,
  0x81dc17052e3afcdaU, 0xd82b03adbedac8beU, 0x28ccde21ef130801U, 0xfd2f4bd1e3bce7f7U,
  0x2ce0051b0d00231cU, 0xb809f93aea44f0deU, 0x4921c5d30afbfab2U, 0xf91106190be75604U,
  0xac0dfbc7e83b09cbU, 0xf9bbf4b9d1143d24U, 0xb51fc4b6e1ce4b37U, 0x211e9babebb9234fU,
  0x515c0b0d54061c81U, 0xf7cec61b00c917daU, 0xd544030de6e80947U, 0x18db585f521e51b6U,
  0xe9f00433090ddb0aU, 0xb734ea0d33c43276U, 0x2df1c9d5e90621e4U, 0xdec5bc25aed02841U,
  0x61e65aeaebca99e1U, 0xd028c92cc4cff6e0U, 0x1421f8a004f23ed2U, 0xddf534c4fc07e402U,
  0xd8b921ffc3f68e06U, 0x2af5c0eb3be6244aU, 0x43e1a42b208cdb7U, 0x1f291cc4b7483e2fU,
  0xddf6864cb82af0e3U, 0xb1b745d67fc6fd38U, 0xb3fa0cb0d7b82657U, 0x22080087a551b40fU,
  0xf09936b2d2aabee4U, 0xfc072ec1dd18b5b8U, 0xc4a937f26a2518b5U, 0xee9d080b2a9da1b6U,
  0xebb0fa2d0f36e312U, 0x9b9bacdc251ab955U, 0x134f4d2e230d212bU, 0x30ff9f18af502e08U,
  0xe5f8d73d731517bfU, 0x7f52b3f5d9d705faU, 0xe39ed33209f6cdfdU, 0x3a4541502a2fc21eU,
  0xd62d5c70d3d0ea1eU, 0x34420bb82a21bfceU, 0x1e2c53d27f15e63fU, 0xde0fcd03a6ec1f0bU,
  0xba29cd550096dfabU, 0xa14412f819d7f1ceU, 0xea1cdcc43b1e08efU, 0xfbf027f61610a4ecU,
  0xc9c1f9da8d1502afU, 0xf02bc333d7b424caU, 0x45fb0bd716fe022bU, 0xf2146d647173715U,
  0xbc22d327e4ce090fU, 0x6b25f7f5f21116ecU, 0xef2a31fcc637e11fU, 0xf378444c01f6d639U,
  0xf6daf0df00014b26U, 0x132efc0117290220U, 0xbbc3de1745e317c8U, 0xdbfc20d3021136ebU,
  0xde020bc32c14d22cU, 0x2ffcb7e6bf12e7fbU, 0xd100d415f6efd281U, 0xbbae2e81bfaae11cU,
  0xebdfc245ee4439b6U, 0xe5f5c0b2e805254bU, 0x11c4d10cd83716bbU, 0xf52e282926cfe3a1U,
  0xdedec6d4c622eed9U, 0xb8e2d01d1031ee4dU, 0xc9dd14cbd14515acU, 0xe5d34650c0435154U,
  0xe9b8084e53bb68b9U, 0x53f6f2e0e8d5e6ceU, 0xdeea5fdd24ec2071U, 0x39fc60110fe4dbb9U,
  0x2bea0d665df1e40eU, 0x2310a707191e2ff0U, 0x39ee59d0c8c5bb0cU, 0xba1844f6f14129e6U,
  0x1ae330f24fd91aefU, 0xbc200e0503d5d3c4U, 0xb602bd1a81dfd5e6U, 0xd4f217323ada19d0U,
  0x1f3c0ec4e2d0ecbeU, 0xec2aade9eff1e1d1U, 0xc704c2d4fac118ffU, 0xbd4cfdaff01cc8d2U,
  0x551e3bb14216f530U, 0x5dee3ebff4d8cb1cU, 0xe8034f691cdc2933U, 0x5bb6ea9e4c41f4f6U,
  0x6348f430eb52b1cdU, 0x2213470e18c62afcU, 0xbde1fef7118e5a52U, 0x6c04404b0419e769U,
  0xf7542ae1f6b4252bU, 0xefefe4ef29c42538U, 0xe99d0dbcb808fa7fU, 0xd51b3548fa3cdac9U,
  0x4ff63838f2de2445U, 0xc30bd955553dcb00U, 0xe4310145f24aed65U, 0x1d2ae2049f2f0d2cU,
  0xc4170f240051b159U, 0xf322b4e8cab9b0bcU, 0xedb9a649cbd810b8U, 0xdefeceeffa2fb01bU,
  0x6af03436342a12f4U, 0xb60ec5ec4257e4e2U, 0x7e0108223e0014a0U, 0xef0bb235729a0a9U,
  0xd14a110443fc1cc5U, 0xbf0b0902ca00f1e7U, 0x309d60fa1439dca0U, 0xbf9d4af5a0a7efffU,
  0x2bc365aca62ea3cU, 0xe47e811974655412U, 0x2406180d3afcc4f0U, 0xbddd31dfc12b11d1U,
  0x43b741daed140d09U, 0x32e31324282e37f0U, 0x39c5094d1a05eae4U, 0xe5354cbfda3a03eeU,
  0xcd1d3e0ff21727fcU, 0x3706b3e2c1f5bbbfU, 0x7f36e4b6de0a4832U, 0xeef0fbbd3800b8dfU,
  0xf5a93b3625cff3fbU, 0x4e52e00659fcfc73U, 0x1cd0210628d733daU, 0xf740e41bf557e858U,
  0x428deda572d4dd0U, 0xe727cfa5aeae1e1bU, 0xc55117cef54ad90bU, 0xebf42c482fdccd07U,
  0xfd3301d6f81bfe18U, 0x1548f8d2e5e5f1ddU, 0x29d1021031cdf844U, 0xf71b09d97fe9f10cU,
  0x2cbbcbb261020eaU, 0xe415cc29e8cb1232U, 0xb9c7f31ac4f112ddU, 0xe640dc182bbaef14U,
  0xf01b3d3bfaed33f4U, 0xff21f83c19c7fae5U, 0xbe04fdf448352e00U, 0xdbd716c32df13e38U,
  0x2730000011aU, 0x90ffffffebU, 0xfffffff6ffffffc5U, 0xfffffd8d00000238U,
  0x10400000046U, 0x7300000125U, 0x22fffffe83U, 0x10e00000068U,
  0xfffffecb000000edU, 0xfffffe2400000274U, 0xfffffedf0000006eU, 0x7cffffff6cU,
  0xffffff79ffffff7dU, 0x162ffffffadU, 0xfffffe9b000001c5U, 0xecfffffdd6U,
  0xc0000001c0U, 0xc900000092U, 0xfffffff20000006fU, 0x9efffffc62U,
  0x12d000000deU, 0x2c00000179U, 0x26b000000e1U, 0x16ffffffeaeU,
  0xffffff750000023cU, 0x268fffffeb3U, 0xffffffc3ffffff36U, 0xffffff7200000052U,
  0xc3ffffff1eU, 0xb6fffffffdU, 0x27fffffeb8U, 0x2f000001e5U,
  0x67fffffe56U, 0xffffffaa00000058U, 0xfffffea8ffffffd4U, 0x1c5ffffffceU,
  0x7300000040U, 0xffffffe400000061U, 0xd6ffffffe3U, 0xfffffff8ffffff28U,
  0xffffffdc0000007eU, 0xffffff69000000d4U, 0xebfffffec0U, 0x12b00000019U,
  0x11500000104U, 0x11700000112U, 0xffffff9dffffff7fU, 0xfffffff3000000beU,
  0x23ffffffebaU, 0xe8fffffeb8U, 0x12900000005U, 0xe7ffffff78U,
  0x13efffffe47U, 0xffffffee000000daU, 0x4bfffffe28U, 0x52ffffffd9U,
  0x1b5ffffffb4U, 0x8affffff2bU, 0xca000000d3U, 0x2e1ffffffd8U,
  0x110000001e9U, 0x14fffffff4U, 0xe8fffffd6bU, 0xa0000000fbU,
  0xeb73f16a4c5fc31U, 0x13c25b8e0f64f06U, 0xbc8faa9596c4a03U, 0xe6e92ceff9ccb5c8U,
  0x2f0263a71faffacU, 0xcac12690e7eec2ecU, 0xbf5dac0c2bf7b0f1U, 0x1594d6fd3d3eabb4U,
  0xd25309161c819b28U, 0x55ee271ea61151ddU, 0x25f0504c5a03aad2U, 0xc4e6efe052fdb3beU,
  0x6cbd2601a2b1157U, 0x3f095b21d2edb92bU, 0x1e00ba903935b601U, 0x2703d2eb0fcf6e1aU,
  0xe1380ba3f9af3695U, 0x48d237dcf4c9fb57U, 0xfe47aa06b7d3c1ddU, 0xc8ccadff2be3eaaeU,
  0xa8e1123aa8fee2f7U, 0x420e40eb2b6d5ef9U, 0x35b54fd5e5fdd026U, 0x5fc320fc424e10e9U,
  0x3c49fedbbae542edU, 0xff1eccc2cb51b157U, 0x2fbe2aaf3ee546e0U, 0xf8d4d4f52d2ef027U,
  0x3effcd2da1c481baU, 0xe6c8fd3407cc2d22U, 0xe1caa63f0cfdf3f4U, 0x12c8de3128d83d23U,
  0xa1762faac2e2c6c3U, 0x44cdc9102c2f260fU, 0xc01a20dd32dc9ceU, 0x6235a9fe5078a6d6U,
  0xb63e0d55c7f12256U, 0xc95613ff1b7e5fffU, 0x1a1dbab44020fd39U, 0x60e6625bd4061d56U,
  0xf5f1edbdf7ef0ef6U, 0x25b4021813e717ebU, 0x3d3b029b3344ecaU, 0x7744bae018f7384cU,
  0x123fa7c9020b3714U, 0x36d0bce7ff4d770cU, 0x5e1bff3638ef67d7U, 0x3306ab35c7e8117fU,
  0x1522b35ed9fd3510U, 0xb5faccd9f31e4c29U, 0x26e32984e838bc15U, 0xe65f2e9b33f739b8U,
  0x3f14def2d21a3142U, 0x39f4da130030e19bU, 0xc170d1b22c13040eU, 0xa3f3fb4dc3e1bbeaU,
  0x452cf30844db9fc1U, 0xbf57f9527d91884U, 0x743d2b15503ac8f0U, 0x921598839dc74efU,
  0xaaca492cd7583e15U, 0x1ce9220c502993edU, 0x2904da1456dfd91aU, 0x2e62c4d4d95d2e54U,
  0x3b282969080f7f40U, 0xc9ecb64fce5e2e05U, 0x40ebf295fa710a15U, 0xba39420ee9351b11U,
  0x3bdcd21636f9b5acU, 0x12c4fa1700e2e7daU, 0x643a3927147763c8U, 0xc732f3211ab6aeb6U,
  0xb7cbf414f4fbb142U, 0xa6c73b5d1913e5e7U, 0xced1bb96fd70b09U, 0xfcf6f6564d6100d0U,
  0x31ca7c02f14160f8U, 0xdef74fd7f8cccfe9U, 0x35c77d414caac48U, 0x2431f70b6749fe18U,
  0x9ea6c717385739f6U, 0xc11001b1eab73901U, 0xe7eaff2411f8ae2cU, 0xf40ed72f4020a6f4U,
  0xfea9631b8bdf2462U, 0x21ae2f6c38edd0f5U, 0xc4a0b056f8cc9d0dU, 0x1b1a4116d757eb1bU,
  0x7ebe33a42a03216U, 0xeaaeceef541fd353U, 0xb9552e81beebc391U, 0x5fd150f901bc064cU,
  0xabe805912f48a40cU, 0x22a7afd5f1085c0fU, 0xf218a0132b42f0b1U, 0x629a4c6952213efU,
  0xd148f829d9ded9U, 0xc73c3529518fd540U, 0xe36bb262e7fb45e5U, 0x312ffe79a2f90606U,
  0xe0e6e22ca20ae50fU, 0x56f257221b5813d5U, 0xdacb20cfc1ee0466U, 0x1e92210339e5db1fU,
  0x170729cbd1e0581dU, 0xe3b2b515472797e1U, 0xfbf8c51bcfcd13d1U, 0xe61dfdc3bcf922b7U,
  0xc14fce2dddce8108U, 0xfcde37b7f5d1e14dU, 0x36dca01520d6e896U, 0x55b0b82cb831e033U,
  0xe8fcc9f24414fc45U, 0xafd150192fe031d0U, 0x812dcbfdd0c208abU, 0x33d655dacb195e52U,
  0x4cbbd8e9ec213ad5U, 0x55dcae641ff9eff4U, 0x5100d0d1c82931efU, 0x4fd4d1a42a00f6U,
  0xd3e240c5e74a1ac8U, 0xc8e308555b3adb3dU, 0xcadeffe21bed220fU, 0xa316a66c525ee748U,
  0xe2e6d50ffaf81302U, 0xa20a24d8bfb5e0dcU, 0x81c32028cf0fcc0eU, 0x2afd9465309f7bbU,
  0x33161557bc445021U, 0x1d6bcc41c6476ac1U, 0x25aefc9a5c4047faU, 0xafe104f45e19fe0cU,
  0x4ab525f04d51b4e4U, 0x1e3614a400c2b3eeU, 0x3f0fb17e145d628U, 0x92e0e30d53ccd8edU,
  0xaed7c5022081ede1U, 0x3493fccec327e0bfU, 0x57d7092a38251f3cU, 0x282c6d30cebbd5b1U,
  0xc13e59e5de2cd8d0U, 0xaabc3fb8489bd52eU, 0x482dc593571ee227U, 0xd15020cbdd96aeaU,
  0x45a33ce591b49ddU, 0x37a5011544d03ccdU, 0xe9d43e17b12c168bU, 0x2b00f601fc1ee91eU,
  0xe44b460ee2a234f1U, 0xbdaceb0ac502286dU, 0x5e3035f3af42d894U, 0x19521dccffb7212cU,
  0x82741a1d7f7e8d6U, 0xba5654deff43f7b8U, 0xf6b5e1c1cc754fe2U, 0x1bfefd31c911f7fdU,
  0x6cc632a07f5641fdU, 0x1becc34c5d51b4ebU, 0x25e4474b1dc106edU, 0xaa49d5e607259e4fU,
  0x1017151405373311U, 0xf70d4df51db0f9f9U, 0xee34add2e1ce40faU, 0xf4e1df51dbb512fU,
  0x18cce132db2b31b4U, 0xfe1e344dd953ed6fU, 0xfce231da41270511U, 0x6741bc0ed9053028U,
  0x1aea4fb21df056aeU, 0x3c619b1ec841b17fU, 0xd2b207f8b2460108U, 0x3cdea752e632be48U,
  0x15f8fca131533de3U, 0xae492e05b2545102U, 0xe2db1f2407c2fd98U, 0x2cecc2c5c9c9bcdfU,
  0xf2c61c5e17531e2aU, 0x355241a444d55bc0U, 0xee1bdcec3c7a1b59U, 0xac0912a871c6ebf2U,
  0xe5f627fb6532abb7U, 0x3c2016ee191ae08bU, 0xcc16a4d96303b0feU, 0x1a8f020e3601bc20U,
  0x13e6bb3deb81413bU, 0xf8da140114a11691U, 0x47c4011a70e5c95aU, 0xf4670cb054c9a98cU,
  0x3305652104bb204cU, 0xba0f301cec0d438U, 0x5463d88c2ed9101cU, 0x2a25760dd5016a10U,
  0x2deec4aa380012b9U, 0x60f4b05e1734f905U, 0x49ceeb06d43ee3c8U, 0x5b4b0e3bd33b34dbU,
  0x27390b042e0c4b74U, 0xa1d52111dfd1f1d2U, 0x391055091addb62cU, 0x211dc4dbb7af13edU,
  0x2465bb814b3b60f9U, 0x210853a4ec1f07d9U, 0xebfe001bbf59d60dU, 0x6a26a52ae6b5606aU,
  0x460b2fe44b5be716U, 0x2df1e51115dff4U, 0x2b2429dbebd0d020U, 0xf6e9b2d949541249U,
  0xb64835c87fccc4c5U, 0xed173316480ce528U, 0xd6ee132d3fb719feU, 0x46e89c17c3db251aU,
  0x2bd6264f99f8235bU, 0xcad21e2ce14f7517U, 0xfecaedbb10294c07U, 0x60420d30d85d3b5dU,
  0x6f55029ffce3332aU, 0x31070cfa3b11b740U, 0x3828050d1c124dfcU, 0x7a67cdfd1f581655U,
  0xdd41abf93260ecc2U, 0x28ef0df616fff04eU, 0x5c0e0948ccb64c90U, 0x6e1d8bd1fd6f230U,
  0xa1b4765c243c081eU, 0x2b3866cb3b154828U, 0x3901dc2ef747e22dU, 0xd719c5ea069b0101U,
  0x29d615086d0fe91cU, 0x2a0a19c66c243591U, 0xb410c6cf5943155dU, 0xb8b0256016b384eU,
  0xa62bf935d1c3bef9U, 0xcf2c14ebad17d11fU, 0x52b8191752e7cb03U, 0x131d32e9d71010e1U,
  0x41a2697ff520b20eU, 0xfce320cea8a83a36U, 0x5301f5160322f3ffU, 0x5bb22abdeccf6841U,
  0xd41029e9961ef03cU, 0x2b671300094766b7U, 0x1308caedfd3cd21cU, 0x3cff452664c1eeadU,
  0x370d4dbf234018cbU, 0x41f440fa26c73cecU, 0x91e00b2641589d14U, 0xe1a4090103f6e3c5U,
  0xd7eccb58dab1efdfU, 0xe408e13cc4921af2U, 0xf4f46ae160c6424cU, 0x2831063b34c4a414U,
  0xb4e5da7f0fb928f4U, 0x1537d5ccc419eebdU, 0x396fc39a24e2c92eU, 0x580627e2e8f21f33U,
  0x2b201a4cd54823f1U, 0x13a2eccb2bbbb7b0U, 0xd315f6b0ce81edb4U, 0x42fc552dc9cdf652U,
  0x502cde632ca4ccbU, 0x1ff405bcabb2250cU, 0x1dafbe3d99214effU, 0xffe7b09ab098d105U,
  0x1d2ec6e519602a41U, 0x310cf91fec23f8f5U, 0xa41bc7f719c60e3cU, 0x1df8cb71150ba934U,
  0x23f033392e4af73eU, 0xd3141608ce28bda2U, 0xfc59f8b9cb1811fdU, 0x225f802122f1524U,
  0x1db3e4864f41608U, 0xbdbe5e3aeed5b825U, 0x1e1dd2c2f9e71bf9U, 0xbe04c40df8e31905U,
  0x43f313ac25ff3bfbU, 0xdbbce00ac8adef1bU, 0x6ecbd7c3001037c8U, 0xdf3a808eb3e0510U,
  0xc4c81aba0c22d3f7U, 0x1153e22c3ede1552U, 0xa224f2f3d5d80a46U, 0xbfd2ad614a21cc50U,
  0x1bf8ccf2d8d4de26U, 0xe505340319c8e711U, 0xafcbe531a456d448U, 0xe9222ddf5a2d8189U,
  0x38d9f9e2f4bc3713U, 0xba33e8a54131179eU, 0xf8e6da0b6d373054U, 0xd9cb14d444a2d814U,
  0xc2dc013a20cbc218U, 0xfa5206e84ba82a9bU, 0x981bcc310835393eU, 0xd01905cf2aa125d9U,
  0xb22ad17df7e229e8U, 0xafa5be3448fbf2c9U, 0x24fb7f0f3cad1668U, 0xc15f411824cd3e91U,
  0x3dfb4c498b203ae4U, 0x53562e354e2e1305U, 0x2475b2e9222b34fbU, 0xf91a36ca16a0e540U,
  0x999d64fd1e3446cU, 0xefb40ec441db18U, 0x972367c353cbd6d5U, 0x3736d124b8d25016U,
  0x28ea3d986c251b96U, 0x2ebba840cdc6f739U, 0x602027d8a3df5acaU, 0xb342bce12639f22cU,
  0xfeb22110ee20930eU, 0x1f03cb5e2455da37U, 0x18cdffc3decc1a30U, 0x9cb226f3fa23b0e3U,
  0x59a4405ba8d928e4U, 0xd75f53b6cab73cc3U, 0x267f5af61bfb0329U, 0xc2f104234b10f7ccU,
  0x2773bd0fe044e8edU, 0xe529e1590b17346cU, 0x2cabaed29ccd432fU, 0x5ceccb924604b93bU,
  0xce349f914b107e4U, 0xb9f11ef1d6513406U, 0xb3783bb15bcbdaf2U, 0xcf186febf5256642U,
  0x5af634022921c81dU, 0xc2c263f9051813a4U, 0x5509b15beae9d3c8U, 0x4a4503d11ad6652aU,
  0xe81a8110121b15caU, 0x59420e62723910c4U, 0xe2efb9df46e7f230U, 0x35a9fb7bf4e3307U,
  0xb3170de14d863decU, 0xe523a822063301U, 0xe928a155dd33e81eU, 0xfde4911fb7ee2915U,
  0xf01114ebfa11032dU, 0xe1e1685ae42a3dd4U, 0x3b6e9176507b27fU, 0x1f96e0a5418553fU,
  0x2dc0bcd8f205623eU, 0x1937e6291329a261U, 0xb5ecb6e8f1bd0449U, 0x4d26020e462fadedU,
  0x5f3d33ebab401cbU, 0x18bbec1bacf25132U, 0x7ffef50edcf40e8eU, 0x34dde0bb10e3333bU,
  0x6c6724d4381c5936U, 0xafc83d45570f1c42U, 0xca3eda4ee4f026e6U, 0xce09fdee213611faU,
  0x3bbbc4d136ce3cd3U, 0xfdc731eac4a5ed7fU, 0x4b324bb2b5baeab8U, 0x5d0bffba05c9f6bdU,
  0xdf12430a6740b552U, 0xf3764dbc6b5a3af1U, 0xed03cdc2f24ed8b5U, 0x95a1031656a929U,
  0xf45b1fe8586d3212U, 0x416c4041fd239f3aU, 0xf1fa45eefd2a0958U, 0xbcfd2de3f055a1cfU,
  0xb55a0ffcd0160997U, 0x1ed13f09fd334442U, 0x3af7ebcf153dfddcU, 0x5bc027c9eec9b2c8U,
  0xec2bc368ffb30b7fU, 0xdaf73ac707f5fed3U, 0xfb2c3c1b42eae3e8U, 0x2d0fe6070f04d555U,
  0x6b58d8efe3c62cc8U, 0x3ac2301fb4fd4e12U, 0xe3a225b2e31fa0bU, 0xed64c6e9bed20143U,
  0x1ef9afec5d4133deU, 0x33c5cdf24e57ca4dU, 0xeec520fbc91f0ed1U, 0x94ccb2a0737e9faU,
  0xc02cf4491c1e02edU, 0xd9353003aaff5a30U, 0x570140c6147f611bU, 0xeaf308314252dad0U,
  0x2614bf651d3e2ae9U, 0xdb180ab317e13623U, 0x1efec93e205ed80fU, 0xdd04d2071b2e3543U,
  0x14f00f0c52bafbadU, 0x2c0ae92fcb262f12U, 0x2c16f72b3cb930deU, 0xe0ec110bd7944ec7U,
  0xdf15eb575ada5856U, 0x2dbbfb4bfd4837abU, 0xf8ddd327cfcbd5ebU, 0x32d3d91dfcdf302fU,
  0xdc481bca120f35d3U, 0x411920d02143f031U, 0x45e220de4455bb06U, 0xd1d6212f09e8ad24U,
  0xb4e46dd5cefbb15U, 0x1b3536c2423351dfU, 0xf94b0af133caf305U, 0xfe07d25e2b1d5c04U,
  0xf13450292bbf38dcU, 0x1cd9d8d01ff9dbe4U, 0x4e5ed20f45f552d5U, 0x400452d5079f24c5U,
  0xeb3ce94bceb21941U, 0xfc1be167104be223U, 0x7f3cd3ec36345241U, 0x18172dc1a7e0173cU,
  0xd5c8154ad6e83f2aU, 0x3c4b0dbfdc3c2c4dU, 0x5009df3805452a59U, 0xda2d143234d7bdd4U,
  0xf82235e1360ab416U, 0xb4e222519513bddU, 0xbad92feb35f91926U, 0xe58126ec1c2737f0U,
  0xeaeedf0103bd48d9U, 0x1cae3017edb3e124U, 0xf9ee1bee31ba4127U, 0x215847253d0f03ecU,
  0x3d519261b04b610U, 0xf3e63f0ee5d52ce0U, 0x465100b714f918d0U, 0xcf647e9d8cc3de0U,
  0xefb5e34542233226U, 0xf81dfaf63acbec2aU, 0xa24838cae6acc007U, 0xb41d085e1e32ff3cU,
  0xeeb6e1c6baf73c0fU, 0xedbb944edda5ab7fU, 0x4df5630c202a189eU, 0x4513fd9ec0004deaU,
  0x22fed307e21208aeU, 0xff4ffe33eb52925cU, 0xd0cd32f12a4dfc16U, 0x26ff2006e8d50bd1U,
  0x35dd289d9dbe4313U, 0xd134e2e1f2a71531U, 0xca145348ef3fc4d4U, 0x13d8453a614b93caU,
  0xe942f40c25049c05U, 0xed033ddf1957aa3aU, 0x593ccad7c4470639U, 0xc83022cf10ff34e3U,
  0xf5f268692f2fc945U, 0xd3ef483a45297024U, 0xa82459d926c5f07dU, 0xb8054d352e2b565eU,
  0x777817ea092f59c9U, 0x15cb48c214394a0aU, 0x4937aa2a0cd5c7c4U, 0x5ec9c688a2f436e1U,
  0x14118b0d36150206U, 0xb28ce526d59de17U, 0x15cd30ac242877cfU, 0x481c0aa6dfdae57fU,
  0xf43524f1f0f12513U, 0x27ea640001cb0da8U, 0x7ede4dde5ddf059U, 0x1e1367be8e9a508U,
  0x2b3761152143b843U, 0x570e1ef2444aea1aU, 0xb2111bef30ee1ff6U, 0x1df03732793ecb01U,
  0xdce1cff50bf95759U, 0x10c9b73bee09f73fU, 0xeec40b246b163116U, 0x22550ecb8cff3dfU,
  0x51015342a21c91baU, 0xd225dc0cee09d947U, 0x4bfee5267fe2d63aU, 0x11e02fc3bdc953e5U,
  0x38093ce331cbd681U, 0x4c1e180931f11325U, 0x9389d66c0aad4f2U, 0x290ebbe1eaefd8fcU,
  0xb5ebecf2b22db1e1U, 0x3d425b6559dd32f9U, 0x9ffb12b9070c9d48U, 0x57d11edf521f6643U,
  0x49dd57daff0e0efdU, 0x12dfe2bfd8fb2433U, 0xe4f9f7b123280cd9U, 0x75600be8c5c839b0U,
  0xf71dd4ea1df2bb33U, 0xdeeeb6339fef3732U, 0x292db13ebcf0cfe8U, 0x3ed5e01c0fe503d3U,
  0x17aface5d33b9f48U, 0xbac1eed1a0d997d0U, 0x3aacd5a71d233a96U, 0x7190ef1dda7f9bcU,
  0xcae6d06abe5341e3U, 0x969a5746b90dac99U, 0xec6723e60b9bf05dU, 0xbf2f212297c867fbU,
  0x59de619afd2f209U, 0x97c1be4fef1a13d2U, 0xc865e6e8fc580ef4U, 0x8b316e30122e3e3U,
  0xb54409d29fffc70fU, 0x4700061e5bbc984aU, 0x9f3ac81505206338U, 0x4115a9abe216b37fU,
  0x3a35e32631c2ebc9U, 0x5a26f7c7cf014a0dU, 0x23113c69f3d009aeU, 0x413ff722190741baU,
  0xb2d307dd92345d5aU, 0xd5d8db37030045bbU, 0xe62f53fbe3a3224dU, 0xce6e09d40cb35b1dU,
  0x7f41252867623cd6U, 0xdc2b20cbd1c027feU, 0x64068b71d32507daU, 0x62ccc8fe0e45f61bU,
  0xef2ca5e71e6e44a7U, 0x5860d238f4790f1bU, 0x27044cfbca1e350fU, 0x17c59150ef3c1aecU,
  0xc491d70c3c45dac1U, 0xebf92de4e14fa4caU, 0x192aa12ee481d393U, 0xfed6beee0b5261f8U,
  0xa81e01f8b51fbb19U, 0x1a9706364a368e3eU, 0xd73c14c89ca25c1bU, 0x5a04c18373cb13a8U,
  0x289eabe940c38fccU, 0xe51aa659e904badbU, 0xd4a5ed33e23519c7U, 0xb003d6a7fbe9a525U,
  0xba23a4acbf25401fU, 0x322e4b2715511015U, 0xc2cae3f375e7f411U, 0x29bf1597462ea388U,
  0x28c0c3bfef9cdae1U, 0xefd6e1b316192b0eU, 0x114f11d4ec002953U, 0x231c3a71b32e3326U,
  0x234f4d2b8639144cU, 0x292cef28054f03b1U, 0x2905b5ff32f4cc08U, 0x26a16526635a7fbdU,
  0x926512e294b7eb5U, 0xe1cd6d6d7030b6cU, 0xe6f01f4bb28c5515U, 0x4b1babaeabafb73eU,
  0xb0e0a917b6b0982eU, 0xd6f4ebb9ddd85ea8U, 0x42fd22cc810c108U, 0xb921dfa2928ddc42U,
  0xa92c0ae32daacfabU, 0x54650ef948cdd421U, 0xd5e05256e2dfb22eU, 0xe62c537fb115cf21U,
  0xe7125dcd40639d06U, 0x700bd47e26590ff9U, 0x45ddc3161b8f430aU, 0xec4e1e2ae7f1070cU,
  0x1b3c4bb5bd062bcaU, 0xd02ed3bf6951abfcU, 0xc8bbebaee2ff2469U, 0xfa4b4241a1603f00U,
  0xa60d1ebc0dbd26edU, 0xa1b5b6f4dedb6956U, 0x5b30bafaa8df09deU, 0x3207cc2edb210166U,
  0xeb3744177fae7a49U, 0xfd155b4505dabad9U, 0x9843e657bcc239c5U, 0x24053055cda00042U,
  0xf640e4d5c4eb2accU, 0x29f29dfa4c0bd0ebU, 0xcbf01eda3df2c00cU, 0xe4d9debd2a381b24U,
  0xc2e75167da21f0d3U, 0x36ca0a0c5d1bc2feU, 0xcedae2f6db1a3e4bU, 0x492b1d51ea440bddU,
  0x413f1cb72bed0ee4U, 0xe110200c2c8b21b1U, 0x1a01456f32b4f139U, 0xdbfc0b4bd7afd4a5U,
  0x32bf2f11bedd29e2U, 0x277cdeeeb70f77eeU, 0x10fe26d52050c409U, 0xb219d5d45f1baf0eU,
  0x4f0fba0e3f44d6ecU, 0x2dee021152a1b282U, 0xef05edfad957bdcbU, 0xb3e5e76d24c9a319U,
  0xc1c0331028eeb0e7U, 0x33ac472eb791ff06U, 0x29631fcbe49aec06U, 0xbed91dcd2fb336caU,
  0x3101617f1019c8b9U, 0xc3c756af25b609c5U, 0x414ebea8742ae142U, 0x31f310d791f62a1dU,
  0xfbb5f40b24d7727fU, 0xf44dd4081d2363c6U, 0x2d25e0d84ee9272bU, 0xd612020bc1b1cU,
  0x33f6ed1515d529a0U, 0x6b2ca009fef0e6f9U, 0x5d043365f5633befU, 0xb13403f43d13f2e2U,
  0xf909d101f5df9324U, 0xa9bdeb775ab6eed9U, 0xfcfb01e4f71edfcdU, 0xddcf273477dc9b2dU,
  0xd42b021decce0949U, 0xab441bd9bcae1edcU, 0xaf3708f94b2ad401U, 0xbdcdb3d603ae498U,
  0x2742d8ca323ef0b8U, 0xdae41a1f57abcf46U, 0x5110b34fe1fd550U, 0xf8d8ca2dafe7f6e9U,
  0xe2ec46eb11dd0234U, 0x402e40443f40e8e7U, 0xedbecd3dd605c5eaU, 0xff070ee3255c58ebU,
  0xf8d3f71f09f22d22U, 0xc43f1c0223ccc69U, 0xa736c8ebe49af103U, 0x4d1437e2293e2fb8U,
  0xd8162c12f4b4a018U, 0x6aca1c402055c03U, 0xf9b88103cbc43dffU, 0x350f01cbf59c5349U,
  0xcbd2b723bd3dd6e5U, 0x7992d3ce93c32fbU, 0xe0c440b4e4406301U, 0x16344cc6f5dcfa65U,
  0xf7b9ffd9f1ba7228U, 0x3ba4ba30dacecfd5U, 0x191fccc3331f22f7U, 0xb30bf417a8cd3221U,
  0x2e42f324343e2803U, 0xb7e3d70b59d966d0U, 0x2627f62bca7fbe23U, 0x7d830581e3f356aU,
  0x3e11cdca604a2aeaU, 0x4cf7fd5057d311daU, 0xe4f9f730e110044fU, 0xdd43eaed55172fffU,
  0xf52fe1f2f634365aU, 0x2d02a9e30b04eecfU, 0xd9311ca43c08139cU, 0xb1d3cfc5ef016974U,
  0xf7ecc93c4c375021U, 0x20fa274534d21e18U, 0x7add1b11fdc72de7U, 0xe152adc5c609d83aU,
  0x1fb07ab350695d5U, 0xb3feef0d12e42629U, 0x4fc6dd0eb37fc0baU, 0xb80c35e1395c0512U,
  0x2e0a1fb6485429d1U, 0x2c5d46de503efc2aU, 0xc2be7228a6da0c62U, 0xecf9b12a6440eac5U,
  0x109861f6e2fe4101U, 0xbb1bc4a106fbfe0fU, 0x120a66a46125db0cU, 0xc505bde5f34f1e9U,
  0x1421e0dfe2eb00cU, 0xf70df1234392b1d2U, 0x14e8cae66504d62dU, 0xd3051a4722d52e4fU,
  0xa101c306040ac21bU, 0xc00527cf01de3cc7U, 0x3e3210c67faffb1bU, 0xabbe5bf0189b1cbfU,
  0x179f554d8826d620U, 0xf8b96447bef52f38U, 0x7a00c28b10e9f20eU, 0xe4d3e829e0d61bedU,
  0x3d16590a08c702f8U, 0x3e074303fd03d9c1U, 0x3fb002f9ec052076U, 0x4ce9d10640ccf5f2U,
  0x23021510094a1146U, 0x2f38f3171d0c2004U, 0xd408f5491028bf72U, 0xa813ee73a3ef641U,
  0xcf16c0dedeb20c12U, 0x37adcf0bc7ee18ebU, 0x20e8d7fd65fc262eU, 0x17ff4425fac43b98U,
  0xf902fe1f00a6dbc1U, 0x2e1f5223dfff0e54U, 0x4756bf1552f55021U, 0xf50c21eab2b95612U,
  0x195230c2d8ebcbc0U, 0xf2c5c10252163750U, 0x1caffaebc00914ceU, 0x4d23c5d9cdf218f9U,
  0xc11d1e7f0bd3580bU, 0xa124f771c215f8ceU, 0x283b204800e1dd25U, 0x16cf19c3472ffc54U,
  0x3ee601240b426e3dU, 0xcbbd0ac33edf54e3U, 0x5ee7d9fc08f20645U, 0xade2f1be5ff6128U,
  0x13fd03fbfc31f2e8U, 0xdf4a91fa2f086a17U, 0xe9c9df54224923c3U, 0x52feaafff63b2703U,
  0xb5c115feb5d9da04U, 0xecceedb0c3befdfU, 0x59d5ebe7ca002109U, 0xff3aae114b13e223U,
  0xda1c285a1aca4dd1U, 0xf3b502abe6ea101eU, 0x65409bd2b1de0f5U, 0x233cd000a2f60e2cU,
  0x282a08a3bc04bfe6U, 0x1fdd57e3bf4bebf9U, 0x5aea815ce034e3ccU, 0xfc119fbec9d54923U,
  0x2300b1deeb4c2ffcU, 0x13ffb311504030c7U, 0x26ae122a11b72f13U, 0xf0d5b0031ae30446U,
  0x11442d25aae6ddcU, 0xe0437f2e5329c0adU, 0xd0e2ebea49c34acaU, 0xf21dd86ea0f247acU,
  0x56f00a2ffe4f98bbU, 0x300a2d5d4a1c4e4bU, 0xc039340ebffd0f2cU, 0x53e418b4f02a56b0U,
  0xedc40025b455e012U, 0x3efa971c000525d9U, 0x9ead7fea380c1b11U, 0x6b582e05f128b31eU,
  0x273f2b1dab141731U, 0x27c132bbd0337532U, 0x12df3c102bc6fd0eU, 0xdfe25a0bf9ebe7bcU,
  0xf71c424756cecadeU, 0x54fc3a2732c2f4ffU, 0xf3669efcdb29f226U, 0x2c32c22916ff0cd9U,
  0xa7f4e04dcaebb951U, 0xf8e50217fb58da21U, 0x84d33ee03af5137aU, 0x5a81def30043f50bU,
  0xfb2116e8be3e3fd8U, 0x1517a9d025bf9c49U, 0xc0d020c3189e2915U, 0x27dccbb32e09edcbU,
  0xeef622c4d3ca93afU, 0xd3abc214d314471eU, 0x13beffcb40a861d8U, 0x911073dc5db3931U,
  0xf3eff761ff0f7932U, 0x51d2d3b431d30b8U, 0x413f4308ebf44007U, 0xb94579171b98ebbdU,
  0xaa1962fa6750adc1U, 0x5dcbf542511f40caU, 0xd6be347fee3de4baU, 0x3af8d13d473244e8U,
  0x359f38daf39bf9c8U, 0xab0722c9c428e8dbU, 0x64d571035132469U, 0xdf231cca4dcbfbfcU,
  0x4c1c5561f0c216dbU, 0xa1da4bf73d28fc0fU, 0x1423c7b161bbd1daU, 0x54d01b2b55b3e8bcU,
  0x12244805052d6f02U, 0xd649633c18da552aU, 0xbcbdd8edfe00eac8U, 0x13b8de22e0e93905U,
  0xcf04d92cd4a3835U, 0x66bcdc1d30ede96aU, 0x5ae56e37c5521c33U, 0x3fa921dd6206e4eaU,
  0xf22bc7ff25e86a1aU, 0xd853acee62f9f76aU, 0xd2b576990bc61012U, 0xe139ecfe7f0ab5c9U,
  0x260c2141c3b836b2U, 0xff134c0194a49ddU, 0x185de8d2594accf4U, 0x50237dad634f34feU,
  0xb356c102f9f9b69aU, 0x6303f9edcc1f0823U, 0xc2143d49f0d3e0cbU, 0x336825cefe4c8b2fU,
  0x1b3c4a6cdee3ea31U, 0xe5d8c5f547552828U, 0x1f2103204d3ca11cU, 0xcce05edf5ee39c8U,
  0x4751e402102daddaU, 0x4be602acd1380832U, 0x44e5c8d82a66d80cU, 0x4b022be120c4d15eU,
  0xf3e3b32d7f4901f2U, 0x4101c925f051d202U, 0x2498c51ae83f38e1U, 0x3cf3980716e852e9U,
  0x463cfbc2355a08ecU, 0x5a55e214d0fc68f8U, 0x6e1c0340ce3d4624U, 0xf398fee040d84246U,
  0x51db48247812bbc9U, 0xdf61220022069e15U, 0x9e54de6ace0a7a5U, 0xd81bee297bf6f1e8U,
  0x33a9671ac88dbbfU, 0xc2c41823e7223881U, 0x2c44daae76acebc2U, 0x21cc0c2eb6db0ffaU,
  0xbfef4acef3352e68U, 0xb32ad2c7f7df23a8U, 0xbe0dcdd64dbc3600U, 0xcf5831f008cddb31U,
  0xcd663dcd2c0b0a81U, 0x6df227221aba03f4U, 0xd6e72e6bc5ee56ebU, 0x27dafd1df5dfbcf4U,
  0xb0f8f3ddad29027bU, 0x31fb425adf58601bU, 0xb5d90cd20708350cU, 0xfd2c57bff23d6707U,
  0x6e045524b6e3f507U, 0xcdcfaea4fc612ceU, 0x3627dc0af744f036U, 0x134ddbc8a6180132U,
  0x2734d01708f5d634U, 0xeb0099363260653eU, 0x62bf03230c4558a3U, 0xac501d2cbd2150fU,
  0x1c240f14dcf63c4aU, 0x11f5f1efe8dceb28U, 0x14deb114eab42890U, 0x300b0aeca93f4960U,
  0x22301a3abfba1f30U, 0x3d0314fa08cecd0dU, 0xc0a4cf9b63ddcbaU, 0x546defdf96f6feefU,
  0xda0ee7a9431cd8c5U, 0xfd6442e02dd14759U, 0x2fa23cfece1ceca8U, 0xc6c026f8437f4173U,
  0x44efde02221a6246U, 0xdd07c645fb3b213bU, 0xa2e44110b962b60fU, 0xf3fae1bedd45862cU,
  0xcce726cb534c3c77U, 0xb0e102c829ef2e97U, 0xe2c20bd2fa935bfU, 0x46f7ddcd07bb09f0U,
  0x2ee5fc1cc3ac23d7U, 0x5aa18d6cecba34f4U, 0x68ce1bf129d0500bU, 0x43368ad01fade827U,
  0xfaa9c22705e5aff7U, 0xcc67d4380443d6e9U, 0x81cb8ca5662707U, 0x1e93b6645676e0bfU,
  0x3dd7b3a90b4e00f3U, 0xfe4724c106f7c9efU, 0xcd3869e80baa3eU, 0xf8f43e10fb50bb94U,
  0xf3f1f5e5ded6b482U, 0x2ce0d7faeb1a1ddcU, 0x5619eee90b44160aU, 0xce4b3194d415252bU,
  0x23eb710cbb9eeebU, 0xd5ff34181d59f6c2U, 0x3f4840ed21c2eb9bU, 0xc6d430ce0a98c23fU,
  0xe45cd82dffe328dbU, 0x481a4a13ec2b13caU, 0xb5281f404e21ec7U, 0xb6f7aa0bf6c67a18U,
  0xb1a9428345238d6U, 0x533abf586b38b02fU, 0xcb35fb3b31d645d6U, 0xb93ce80df6441058U,
  0x36d516121038e52eU, 0xf11e0231f9c8f013U, 0x62ebc43e40fc51fU, 0xe2c7e94b21dcd7c2U,
  0xe51625baef32f23aU, 0xfd43ed30934d3ceU, 0xf0e3170c2f02de59U, 0xfc811713614d02faU,
  0xcb31e0eb321c5afeU, 0xefefc7f40d0dd0f7U, 0xf0104b233fc45146U, 0x3d4c1ffe3fdc1321U,
  0xfe053b64b9df0e1bU, 0xc6cc2714d20f29ebU, 0xe4e3bcd43308e602U, 0xeeb44b0ef7cf4e1dU,
  0xe6262aaedb31e338U, 0xad40d7c4d0e4fe1fU, 0xef62db1de83ec8e9U, 0xfbd4e8bf00ec3a03U,
  0xae49daab2ae7f615U, 0xbffd5c2ffbcfa34U, 0xf1012aee3937f1e8U, 0xa13f331baeba57c7U,
  0x18e444024252304fU, 0xb67fa0395fc624cfU, 0xb126cad006cefb38U, 0xffbebf18bc09fdceU,
  0xeccec8fe06cdffadU, 0xee413af47b73602U, 0xfbc4375d29dda10dU, 0xe5454af8fc6ec598U,
  0x15b4d38f7b72f00U, 0xe028740dfad4e54dU, 0x4132ecedd414e53bU, 0x5ffed84bbb2bc9eaU,
  0xd533e9de33312fe7U, 0x4805c1bc33e13437U, 0x1bfbfcdb29290948U, 0x66a5c542f6424a3aU,
  0x3526c49cbbf63e1fU, 0xaf18cbc8c44b976aU, 0x930beddfb5a3073bU, 0x5537c5dda1292430U,
  0x34cfd93804fe9335U, 0xcd17f0c0351e14d9U, 0x53fc8121c112eb87U, 0x189a12bab1d13511U,
  0xd5dff121ead72b39U, 0xf02d133003da1de1U, 0x8f47e0ecc5fa3121U, 0xab280adeb4da7705U,
  0x223ce104f1f42aaaU, 0xdae1b16aec16ac67U, 0x611cf662c5203800U, 0x5e48ffafd1acddabU,
  0xb91b344e01eeecb7U, 0xd8cdfb6458c0a719U, 0xdd291c9328cf3c49U, 0xebb027281b0205ddU,
  0xece27fe836acfa23U, 0xb94dc1b7d9ba303fU, 0xebf9bd055a44b92fU, 0xe7ad6343505d96f1U,
  0x613f2462f3046732U, 0x9ab822f42122e5d1U, 0x9754d7a64cf1342dU, 0xffec923d43f653dU,
  0x4b28c9f6f0302995U, 0x47d5e0fbdfd0c90fU, 0x2ec81df5c4605dd2U, 0x3d6f0f3cba50a03U,
  0x86ac221ff4ca35e8U, 0xae102051cb53ceffU, 0xbcda7fdc6a28edcaU, 0xc42e059211dfd55U,
  0x4b9f265008ec3af8U, 0x93d6dbeae1a3c11U, 0xd0f238fb4f499252U, 0x192031161e21aa8aU,
  0x27eef767c6413a17U, 0xb5dc3643f3465cfaU, 0xcb4150364fda2daeU, 0xdcf3c841f4f91f71U,
  0x4014c247d21959baU, 0x16c137c915c90c32U, 0x4539fb4aea39ffafU, 0xea53b329d3d0b228U,
  0x33135c4d02fced05U, 0xce0e2212f64563fU, 0x708703436fb40feU, 0x2abdf43e97404daU,
  0x32fe12c471277f01U, 0xec64062a12e99accU, 0xa7fd571e1a46be0dU, 0xe62c3be12be3f738U,
  0x1734aff3c2cbede0U, 0xc92a0d61125af157U, 0x1fe13a2a2834fc0bU, 0xb6d90481093b30e0U,
  0xd5d449114940375eU, 0xfe3a6abbed022ac1U, 0xcd7f42943bfcaf9fU, 0x15b6362b212d125dU,
  0x4bb7a095cb0f14d3U, 0xc3d66fc0b6245ccdU, 0xc6ed131e969b9e8U, 0x4c0db3e7e2d63e26U,
  0x16ee30c02b00d906U, 0x47d91c256b042424U, 0xf5ad0033213248eeU, 0x1809abc102573756U,
  0x33617f81fe74704U, 0xda0de01cc90b0131U, 0x1b2c580c397f3a49U, 0xf53916a37c0bd70aU,
  0x18ccf1102d2fbd2fU, 0x1b4c0e845f0ed993U, 0xbfd5e13c390730f9U, 0xb5cbdb6f33f6b7e1U,
  0xb425d65753dbb211U, 0x3ed121d3abaf2396U, 0xfc934d26c05d453U, 0xf60224e3c90523e7U,
  0x21bc1b48d2fe374bU, 0xb8b928f9eeb427beU, 0xf4fe203550130bf4U, 0x1a55d8f7f3496200U,
  0x118ffffffdaU, 0x11000000f8U, 0xffffffa5000002b6U, 0x1ec00000044U,
  0x36e00000105U, 0xfffffef600000239U, 0x382000001ddU, 0x104000000f8U,
  0x10e0000022cU, 0x259000000ecU, 0x5f00000017cU, 0x2600000557U,
  0x2550000017cU, 0x13200000182U, 0x2b600000121U, 0x1b00000175U,
  0xffffff0000000120U, 0x43efffffff1U, 0xffffff3f000001b8U, 0x1f400000151U,
  0x318000001b2U, 0xffffff28000001e2U, 0xffffff96000000beU, 0x2a700000298U,
  0x2e000000088U, 0xfffffeae0000002bU, 0x1c5000000d1U, 0xfffffe650000018bU,
  0x13600000174U, 0x112fffffed9U, 0x45500000232U, 0x151ffffff20U,
  0xe6bed0e5272605f5U, 0x81bb4d21d53c67edU, 0x6e27c01fb6c1ada8U, 0xef5c032c7ea1a4fU,
  0xcbc3b99abebf1052U, 0xd491402a08f82f4aU, 0x5fa63b2b0c658ab9U, 0xf74e20b69dcdb1b9U,
  0xf94255ac982458d8U, 0xe33767f8f84be8f0U, 0x2e874ccec7e111c1U, 0xf5586812055022ecU,
  0x3bb4f11f750b4b0fU, 0x7f2ba4193e21af9bU, 0xdab8c43ef3134710U, 0xd5ee9f8ed94eb139U,
  0xe7a4d40644a18166U, 0x3f64acc820cb966dU, 0x30e0b2c44914a7bdU, 0x16c464c8ec603421U,
  0xbd316d01bd9c5190U, 0xa0f9acb2407a0308U, 0x12a5c3b35cb3412aU, 0x57e71a2af9bedd17U,
  0x70d59d01a48eb6cfU, 0x83983efdca7f65deU, 0xb063a98c71e47642U, 0xb4b82b8a5ebdb6c8U,
  0xe23e9b564b9b6afbU, 0xbb128fefad893f33U, 0xce6963c7c0d16206U, 0xa2b15a4e30c100ccU,
  0xffffff0efffffff3U, 0xf0ffffffd8U,
};


ai_handle g_network_weights_table[1 + 2] = {
  AI_HANDLE_PTR(AI_MAGIC_MARKER),
  AI_HANDLE_PTR(s_network_weights_array_u64),
  AI_HANDLE_PTR(AI_MAGIC_MARKER),
};

